{
  "version": "1.0",
  "truncation": null,
  "padding": null,
  "added_tokens": [
    {
      "id": 0,
      "content": "<pad>",
      "single_word": false,
      "lstrip": false,
      "rstrip": false,
      "normalized": false,
      "special": true
    },
    {
      "id": 1,
      "content": "<unk>",
      "single_word": false,
      "lstrip": false,
      "rstrip": false,
      "normalized": false,
      "special": true
    },
    {
      "id": 2,
      "content": "<bos>",
      "single_word": false,
      "lstrip": false,
      "rstrip": false,
      "normalized": false,
      "special": true
    },
    {
      "id": 3,
      "content": "<eos>",
      "single_word": false,
      "lstrip": false,
      "rstrip": false,
      "normalized": false,
      "special": true
    }
  ],
  "normalizer": null,
  "pre_tokenizer": {
    "type": "ByteLevel",
    "add_prefix_space": false,
    "trim_offsets": true,
    "use_regex": true
  },
  "post_processor": null,
  "decoder": null,
  "model": {
    "type": "BPE",
    "dropout": null,
    "unk_token": "<unk>",
    "continuing_subword_prefix": null,
    "end_of_word_suffix": null,
    "fuse_unk": false,
    "byte_fallback": false,
    "ignore_merges": false,
    "vocab": {
      "<pad>": 0,
      "<unk>": 1,
      "<bos>": 2,
      "<eos>": 3,
      "!": 4,
      "\"": 5,
      "#": 6,
      "$": 7,
      "%": 8,
      "&": 9,
      "'": 10,
      "(": 11,
      ")": 12,
      "*": 13,
      "+": 14,
      ",": 15,
      "-": 16,
      ".": 17,
      "/": 18,
      "0": 19,
      "1": 20,
      "2": 21,
      "3": 22,
      "4": 23,
      "5": 24,
      "6": 25,
      "7": 26,
      "8": 27,
      "9": 28,
      ":": 29,
      ";": 30,
      "<": 31,
      "=": 32,
      ">": 33,
      "?": 34,
      "@": 35,
      "A": 36,
      "B": 37,
      "C": 38,
      "D": 39,
      "E": 40,
      "F": 41,
      "G": 42,
      "H": 43,
      "I": 44,
      "J": 45,
      "K": 46,
      "L": 47,
      "M": 48,
      "N": 49,
      "O": 50,
      "P": 51,
      "Q": 52,
      "R": 53,
      "S": 54,
      "T": 55,
      "U": 56,
      "V": 57,
      "W": 58,
      "X": 59,
      "Y": 60,
      "Z": 61,
      "[": 62,
      "\\": 63,
      "]": 64,
      "^": 65,
      "_": 66,
      "`": 67,
      "a": 68,
      "b": 69,
      "c": 70,
      "d": 71,
      "e": 72,
      "f": 73,
      "g": 74,
      "h": 75,
      "i": 76,
      "j": 77,
      "k": 78,
      "l": 79,
      "m": 80,
      "n": 81,
      "o": 82,
      "p": 83,
      "q": 84,
      "r": 85,
      "s": 86,
      "t": 87,
      "u": 88,
      "v": 89,
      "w": 90,
      "x": 91,
      "y": 92,
      "z": 93,
      "{": 94,
      "|": 95,
      "}": 96,
      "~": 97,
      "¡": 98,
      "¢": 99,
      "£": 100,
      "¤": 101,
      "¥": 102,
      "¦": 103,
      "§": 104,
      "¨": 105,
      "©": 106,
      "ª": 107,
      "«": 108,
      "¬": 109,
      "®": 110,
      "¯": 111,
      "°": 112,
      "±": 113,
      "²": 114,
      "³": 115,
      "´": 116,
      "µ": 117,
      "¶": 118,
      "·": 119,
      "¸": 120,
      "¹": 121,
      "º": 122,
      "»": 123,
      "¼": 124,
      "½": 125,
      "¾": 126,
      "¿": 127,
      "Â": 128,
      "Ã": 129,
      "Ä": 130,
      "Å": 131,
      "Æ": 132,
      "Ç": 133,
      "È": 134,
      "É": 135,
      "Ê": 136,
      "Ë": 137,
      "Ì": 138,
      "Í": 139,
      "Î": 140,
      "Ï": 141,
      "Ð": 142,
      "Ñ": 143,
      "Ò": 144,
      "Ó": 145,
      "Ô": 146,
      "Õ": 147,
      "Ö": 148,
      "×": 149,
      "Ø": 150,
      "Ù": 151,
      "Ú": 152,
      "Û": 153,
      "Ü": 154,
      "Ý": 155,
      "Þ": 156,
      "ß": 157,
      "à": 158,
      "á": 159,
      "â": 160,
      "ã": 161,
      "ä": 162,
      "å": 163,
      "æ": 164,
      "ç": 165,
      "è": 166,
      "é": 167,
      "ê": 168,
      "ë": 169,
      "ì": 170,
      "í": 171,
      "î": 172,
      "ï": 173,
      "ð": 174,
      "ô": 175,
      "Ċ": 176,
      "Ġ": 177,
      "Ģ": 178,
      "ģ": 179,
      "Ĥ": 180,
      "ĥ": 181,
      "Ħ": 182,
      "ħ": 183,
      "Ĩ": 184,
      "ĩ": 185,
      "Ī": 186,
      "ī": 187,
      "Ĭ": 188,
      "ĭ": 189,
      "Į": 190,
      "į": 191,
      "İ": 192,
      "ı": 193,
      "Ĳ": 194,
      "ĳ": 195,
      "Ĵ": 196,
      "ĵ": 197,
      "Ķ": 198,
      "ķ": 199,
      "ĸ": 200,
      "Ĺ": 201,
      "ĺ": 202,
      "Ļ": 203,
      "ļ": 204,
      "Ľ": 205,
      "ľ": 206,
      "Ŀ": 207,
      "ŀ": 208,
      "Ł": 209,
      "ł": 210,
      "Ń": 211,
      "Ġt": 212,
      "he": 213,
      "an": 214,
      "in": 215,
      "er": 216,
      "or": 217,
      "on": 218,
      "Ġthe": 219,
      "Ġa": 220,
      "es": 221,
      "at": 222,
      "is": 223,
      "en": 224,
      "ar": 225,
      "Ġo": 226,
      "Ġs": 227,
      "al": 228,
      "ed": 229,
      "Ġw": 230,
      "it": 231,
      "Ġc": 232,
      "Ġof": 233,
      "re": 234,
      "ic": 235,
      "and": 236,
      "ĠC": 237,
      "Ġb": 238,
      "Ġ1": 239,
      "Ġp": 240,
      "Ġf": 241,
      "Ġin": 242,
      "as": 243,
      "Ġm": 244,
      "ĠT": 245,
      "ĠS": 246,
      "ĠA": 247,
      "ro": 248,
      "Ġand": 249,
      "ing": 250,
      "le": 251,
      "ion": 252,
      "ou": 253,
      "Ġd": 254,
      "Ġ(": 255,
      "Ġto": 256,
      "âĢ": 257,
      "ĠM": 258,
      "Ġh": 259,
      "il": 260,
      "am": 261,
      "20": 262,
      "us": 263,
      "ĠB": 264,
      "om": 265,
      "ent": 266,
      "Ġ19": 267,
      "el": 268,
      "ĠP": 269,
      "ĠI": 270,
      "Ġis": 271,
      "âĢĵ": 272,
      "ol": 273,
      "ĠR": 274,
      "ĠThe": 275,
      "ate": 276,
      "et": 277,
      "ĠH": 278,
      "Ġl": 279,
      "||": 280,
      "ot": 281,
      "ac": 282,
      "Ġn": 283,
      "Ġth": 284,
      "ad": 285,
      "st": 286,
      "ur": 287,
      "ory": 288,
      "ec": 289,
      "ĠL": 290,
      "ir": 291,
      "ĠF": 292,
      "ay": 293,
      "ĠD": 294,
      "ĠG": 295,
      "un": 296,
      "Ġg": 297,
      "ri": 298,
      "ers": 299,
      "Ġ20": 300,
      "ĠE": 301,
      "ateg": 302,
      "ategory": 303,
      "ĠCategory": 304,
      "th": 305,
      "ĠW": 306,
      "id": 307,
      "iv": 308,
      "ĠN": 309,
      "im": 310,
      "ĠJ": 311,
      "ĠâĢĵ": 312,
      "Ġe": 313,
      "ow": 314,
      "ist": 315,
      "all": 316,
      "her": 317,
      "ag": 318,
      "um": 319,
      "Ġwas": 320,
      "ig": 321,
      "Ġon": 322,
      "Ġfor": 323,
      "ch": 324,
      "op": 325,
      "ation": 326,
      "ut": 327,
      "ĠO": 328,
      "em": 329,
      "ul": 330,
      "Ġre": 331,
      "est": 332,
      "ct": 333,
      "Ġst": 334,
      "19": 335,
      "ian": 336,
      "os": 337,
      "ver": 338,
      "ter": 339,
      "ce": 340,
      "ap": 341,
      "00": 342,
      "Ġbe": 343,
      "Ġare": 344,
      "av": 345,
      "Ġal": 346,
      "Ġas": 347,
      "ith": 348,
      "rom": 349,
      "od": 350,
      "ĠK": 351,
      "ia": 352,
      "ain": 353,
      "ĠIn": 354,
      "ly": 355,
      "ĠU": 356,
      "Ġan": 357,
      "ber": 358,
      "Ġby": 359,
      "ak": 360,
      "Ġ2": 361,
      "Ġ|": 362,
      "mer": 363,
      "oun": 364,
      "Ġwh": 365,
      "art": 366,
      "Ġwith": 367,
      "Ġr": 368,
      "Ġthat": 369,
      "ies": 370,
      "Ġfrom": 371,
      "Ġor": 372,
      "ish": 373,
      "ill": 374,
      "up": 375,
      "ov": 376,
      "ess": 377,
      "if": 378,
      "Ġit": 379,
      "Ġhe": 380,
      "ht": 381,
      "ĠSt": 382,
      "ab": 383,
      "Ġpl": 384,
      "Ġ\"": 385,
      "Ġ200": 386,
      "ld": 387,
      "'s": 388,
      "ity": 389,
      "ican": 390,
      "ĠIt": 391,
      "ĠCh": 392,
      "ther": 393,
      "Ġat": 394,
      "oc": 395,
      "ep": 396,
      "Ġcom": 397,
      "ew": 398,
      "Ġv": 399,
      "ard": 400,
      "ĠV": 401,
      "ant": 402,
      "ear": 403,
      "ue": 404,
      "ich": 405,
      "Ġk": 406,
      "ort": 407,
      "ub": 408,
      "ud": 409,
      "Ġcon": 410,
      "ame": 411,
      "Ġpro": 412,
      "ip": 413,
      "ef": 414,
      "Ġus": 415,
      "Ġ18": 416,
      "og": 417,
      "Ġ3": 418,
      "ary": 419,
      "merican": 420,
      "eop": 421,
      "rit": 422,
      "ast": 423,
      "Ġch": 424,
      "ang": 425,
      "eople": 426,
      "our": 427,
      "end": 428,
      "ore": 429,
      "ug": 430,
      "ell": 431,
      "eb": 432,
      "Ġ201": 433,
      "ost": 434,
      "ong": 435,
      "ust": 436,
      "200": 437,
      "ord": 438,
      "ĠHe": 439,
      "se": 440,
      "ĠUn": 441,
      "ie": 442,
      "ment": 443,
      "so": 444,
      "ave": 445,
      "ces": 446,
      "ra": 447,
      "Ġ199": 448,
      "man": 449,
      "ine": 450,
      "ran": 451,
      "ok": 452,
      "ĠTh": 453,
      "Ġnot": 454,
      "ive": 455,
      "qu": 456,
      "ry": 457,
      "ated": 458,
      "land": 459,
      "Ġplay": 460,
      "ome": 461,
      "ere": 462,
      "Ġhis": 463,
      "Ġsh": 464,
      "ack": 465,
      "Ġsp": 466,
      "Ġpeople": 467,
      "und": 468,
      "Ġse": 469,
      "ĠAmerican": 470,
      "ect": 471,
      "Ġex": 472,
      "umb": 473,
      "Ġle": 474,
      "ount": 475,
      "ik": 476,
      "Ġ-": 477,
      "Ġde": 478,
      "ial": 479,
      "ĠAn": 480,
      "ge": 481,
      "Ġwere": 482,
      "Ġy": 483,
      "ĠY": 484,
      "Ġbec": 485,
      "ĠLe": 486,
      "uc": 487,
      "Ġhas": 488,
      "Ġalso": 489,
      "10": 490,
      "ical": 491,
      "irst": 492,
      "ure": 493,
      "Ġwhich": 494,
      "ĠAl": 495,
      "out": 496,
      "hen": 497,
      "ork": 498,
      "ide": 499,
      "ions": 500,
      "Ġcan": 501,
      "Ġ|-": 502,
      "ally": 503,
      "ember": 504,
      "ey": 505,
      "ĠEn": 506,
      "ass": 507,
      "amp": 508,
      "own": 509,
      "Ġhave": 510,
      "age": 511,
      "any": 512,
      "ight": 513,
      "ire": 514,
      "eren": 515,
      "Ġ4": 516,
      "res": 517,
      "ond": 518,
      "ates": 519,
      "Ġab": 520,
      "per": 521,
      "âĢĶ": 522,
      "ff": 523,
      "ited": 524,
      "Ġte": 525,
      "orn": 526,
      "Ġ198": 527,
      "ous": 528,
      ").": 529,
      "Ġcomp": 530,
      "Ġact": 531,
      "Ġthey": 532,
      "ĠAr": 533,
      "pp": 534,
      "sp": 535,
      "oot": 536,
      "199": 537,
      "ade": 538,
      "Ġfirst": 539,
      "),": 540,
      "to": 541,
      "orld": 542,
      "ric": 543,
      "ater": 544,
      "ĠMar": 545,
      "als": 546,
      "ach": 547,
      "ght": 548,
      "Ġ5": 549,
      "Ġgo": 550,
      "Ġcl": 551,
      "Ġother": 552,
      "lish": 553,
      "les": 554,
      "ational": 555,
      "iz": 556,
      "Ġ197": 557,
      "Ġar": 558,
      "px": 559,
      "row": 560,
      "ĠRef": 561,
      "erences": 562,
      "aus": 563,
      "Ġone": 564,
      "rop": 565,
      "ice": 566,
      "ague": 567,
      "ath": 568,
      "ts": 569,
      "ball": 570,
      "Ġpart": 571,
      "fter": 572,
      "ob": 573,
      "Ġcall": 574,
      "Ġmov": 575,
      "ĠReferences": 576,
      "Ġtheir": 577,
      "aw": 578,
      "ace": 579,
      "ind": 580,
      "Ġun": 581,
      "cl": 582,
      "Ġbut": 583,
      "ress": 584,
      "ound": 585,
      "ime": 586,
      "ĠEng": 587,
      "Ġ6": 588,
      "ree": 589,
      "ib": 590,
      "Ġhad": 591,
      "Ġwho": 592,
      "erman": 593,
      "18": 594,
      "ean": 595,
      "ru": 596,
      "ren": 597,
      "ors": 598,
      "orm": 599,
      "ĠUnited": 600,
      "Ġj": 601,
      "wo": 602,
      "ens": 603,
      "Ġcalled": 604,
      "old": 605,
      "ings": 606,
      "ign": 607,
      "ite": 608,
      "ootball": 609,
      "te": 610,
      "Ġ196": 611,
      "io": 612,
      "Ġused": 613,
      "ake": 614,
      "very": 615,
      "Ġ7": 616,
      "Ġyear": 617,
      "ĠThis": 618,
      "hy": 619,
      "Ġall": 620,
      "port": 621,
      "ics": 622,
      "ne": 623,
      "Ġro": 624,
      "act": 625,
      "ild": 626,
      "one": 627,
      "ould": 628,
      "oh": 629,
      "ons": 630,
      "right": 631,
      "50": 632,
      "11": 633,
      "uch": 634,
      "ook": 635,
      "Ġthis": 636,
      "ĠNew": 637,
      "ision": 638,
      "are": 639,
      "Ġabout": 640,
      "usic": 641,
      "Ġ17": 642,
      "ĠLeague": 643,
      "Ã©": 644,
      "Ġweb": 645,
      "Ġ194": 646,
      "Ġ8": 647,
      "lect": 648,
      "Ġsc": 649,
      "ult": 650,
      "Ġmany": 651,
      "ark": 652,
      "ev": 653,
      "ike": 654,
      "ĠThey": 655,
      "tern": 656,
      "ations": 657,
      "Ġser": 658,
      "ĠGerman": 659,
      "Ġkn": 660,
      "ton": 661,
      "Ġmade": 662,
      "ten": 663,
      "Ġits": 664,
      "ames": 665,
      "ents": 666,
      "Ġmost": 667,
      "ence": 668,
      "ward": 669,
      "ied": 670,
      "30": 671,
      "Ġtr": 672,
      "Ġwebs": 673,
      "fer": 674,
      "ĠOther": 675,
      "ile": 676,
      "ĠSp": 677,
      "ah": 678,
      "12": 679,
      "we": 680,
      "Ġdis": 681,
      "=\"": 682,
      "che": 683,
      "ier": 684,
      "ood": 685,
      "ause": 686,
      "outh": 687,
      "pt": 688,
      "ites": 689,
      "ick": 690,
      "Ġdo": 691,
      "oy": 692,
      "ition": 693,
      "ern": 694,
      "ail": 695,
      "The": 696,
      "Ġag": 697,
      "orth": 698,
      "Ġpol": 699,
      "Ġcont": 700,
      "olog": 701,
      "Ġmore": 702,
      "ex": 703,
      "ĠStates": 704,
      "ft": 705,
      "ict": 706,
      "pl": 707,
      "Ġtwo": 708,
      "ĠCl": 709,
      "Ġim": 710,
      "Ġafter": 711,
      "000": 712,
      "ral": 713,
      "Ġtime": 714,
      "Ġinto": 715,
      "Ġcount": 716,
      "\"|": 717,
      "ock": 718,
      "ans": 719,
      "ĠFran": 720,
      "ĠAs": 721,
      "Ġher": 722,
      "14": 723,
      "ubl": 724,
      "Ġen": 725,
      "ĠSc": 726,
      "Ġad": 727,
      "span": 728,
      "apan": 729,
      "iss": 730,
      "ince": 731,
      "reat": 732,
      "Ġwhen": 733,
      "clud": 734,
      "198": 735,
      "ays": 736,
      "ĠSh": 737,
      "Ġwork": 738,
      "ont": 739,
      "ivers": 740,
      "Ġ9": 741,
      "Ġ195": 742,
      "ins": 743,
      "Ġfootball": 744,
      "Ġmusic": 745,
      "Ġwrit": 746,
      "Ġ16": 747,
      "ĠWorld": 748,
      "Ġ10": 749,
      "gh": 750,
      "13": 751,
      "Ġcomm": 752,
      "Ġ0": 753,
      "ĠBrit": 754,
      "17": 755,
      "cc": 756,
      "Ġthem": 757,
      "Ġres": 758,
      "16": 759,
      "ident": 760,
      "Ġup": 761,
      "eg": 762,
      "Ġthumb": 763,
      "ĠZ": 764,
      "ese": 765,
      "uring": 766,
      "Ġsome": 767,
      "oll": 768,
      "ages": 769,
      "ĠInd": 770,
      "ĠEnglish": 771,
      "Ġ193": 772,
      "Ġso": 773,
      "Ġsy": 774,
      "15": 775,
      "ina": 776,
      "Ġper": 777,
      "Ġinclud": 778,
      "lev": 779,
      "Ġdif": 780,
      "ury": 781,
      "Ġthere": 782,
      "rap": 783,
      "ĠCom": 784,
      "Ġout": 785,
      "here": 786,
      "Ġsing": 787,
      "ased": 788,
      "thumb": 789,
      "round": 790,
      "du": 791,
      "Ġwebsites": 792,
      "Ġev": 793,
      "Ġbeen": 794,
      "az": 795,
      "mp": 796,
      "Ġ15": 797,
      "22": 798,
      "ĠJoh": 799,
      "ober": 800,
      "une": 801,
      "hed": 802,
      "ĠIs": 803,
      "Ġcent": 804,
      "ĠJapan": 805,
      "roup": 806,
      "wn": 807,
      "ife": 808,
      "inn": 809,
      "Ġknown": 810,
      "ower": 811,
      "ose": 812,
      "Ġbir": 813,
      "ism": 814,
      "Ġfl": 815,
      "gan": 816,
      "hip": 817,
      "uss": 818,
      "urn": 819,
      "Ġbet": 820,
      "ĠCup": 821,
      "ugh": 822,
      "Ġthan": 823,
      "ĠWar": 824,
      "ram": 825,
      "red": 826,
      "Ġonly": 827,
      "Ġcity": 828,
      "Ġlike": 829,
      "ities": 830,
      "Ġco": 831,
      "Ġover": 832,
      "Ġ14": 833,
      "ĠKing": 834,
      "ever": 835,
      "erson": 836,
      "ths": 837,
      "Ġvery": 838,
      "Ġrec": 839,
      "der": 840,
      "ash": 841,
      "Ġnew": 842,
      "Ġyears": 843,
      "son": 844,
      "ists": 845,
      "vern": 846,
      "anu": 847,
      "ments": 848,
      "Ġfam": 849,
      "ix": 850,
      "Ġoff": 851,
      "ept": 852,
      "ance": 853,
      "Ġ192": 854,
      "ĠJohn": 855,
      "yp": 856,
      "opul": 857,
      "ĠAust": 858,
      "ase": 859,
      "Ġbecause": 860,
      "ks": 861,
      "Ġbecame": 862,
      "igh": 863,
      "ron": 864,
      "Ġfound": 865,
      "ĠOn": 866,
      "Ġ12": 867,
      "Ġcol": 868,
      "int": 869,
      "ium": 870,
      "Ġlar": 871,
      "ann": 872,
      "ĠEu": 873,
      "imes": 874,
      "iet": 875,
      "arl": 876,
      "ll": 877,
      "att": 878,
      "ms": 879,
      "ale": 880,
      "Ġhim": 881,
      "197": 882,
      "ley": 883,
      "Ġbl": 884,
      "Ġpo": 885,
      "ferent": 886,
      "enn": 887,
      "ve": 888,
      "ĠBritish": 889,
      "ĠPro": 890,
      "able": 891,
      "Ġgroup": 892,
      "pr": 893,
      "ually": 894,
      "Ġapp": 895,
      "rim": 896,
      "ĠThere": 897,
      "Ġteam": 898,
      "ason": 899,
      "ely": 900,
      "Ġwe": 901,
      "Ġpolit": 902,
      "iving": 903,
      "ician": 904,
      "eth": 905,
      "ĠAt": 906,
      "ĠPl": 907,
      "Ġplayer": 908,
      "oth": 909,
      "ener": 910,
      "ĠMay": 911,
      "istory": 912,
      "ween": 913,
      "ily": 914,
      "Ġqu": 915,
      "Ġshe": 916,
      "ph": 917,
      "Ġdes": 918,
      "Ġdifferent": 919,
      "ĠShe": 920,
      "Ġbu": 921,
      "oman": 922,
      "Ġstart": 923,
      "levision": 924,
      "ough": 925,
      "ĠBl": 926,
      "ction": 927,
      "co": 928,
      "other": 929,
      "ĠQ": 930,
      "resident": 931,
      "||||": 932,
      "ĠCan": 933,
      "\".": 934,
      "iam": 935,
      "rist": 936,
      "Ġsm": 937,
      "rench": 938,
      "ica": 939,
      "ss": 940,
      "Ġ13": 941,
      "ool": 942,
      "Ġreg": 943,
      "bum": 944,
      "iel": 945,
      "ient": 946,
      "Ġwhere": 947,
      "Ġmean": 948,
      "Ġpopul": 949,
      "ures": 950,
      "ĠCon": 951,
      "Ġsuch": 952,
      "econd": 953,
      "ather": 954,
      "Ġname": 955,
      "iversity": 956,
      "Ġshow": 957,
      "rib": 958,
      "ĠFor": 959,
      "Ġbetween": 960,
      "angu": 961,
      "ĠJul": 962,
      "anuary": 963,
      "ution": 964,
      "ars": 965,
      "Ġmon": 966,
      "stem": 967,
      "ĠEurop": 968,
      "Ġend": 969,
      "24": 970,
      "Ġrel": 971,
      "under": 972,
      "Ġspec": 973,
      "Ġatt": 974,
      "way": 975,
      "ott": 976,
      "Ġform": 977,
      "rid": 978,
      "au": 979,
      "Ġworld": 980,
      "Ġmay": 981,
      "iver": 982,
      "ual": 983,
      "ĠYork": 984,
      "ĠII": 985,
      "ĠItal": 986,
      "els": 987,
      "urr": 988,
      "hem": 989,
      "ograp": 990,
      "Ġelect": 991,
      "Ġagain": 992,
      "Ġseries": 993,
      "aj": 994,
      "23": 995,
      "Ġwould": 996,
      "Ġest": 997,
      "ĠCol": 998,
      "ax": 999,
      "American": 1000,
      "ink": 1001,
      "rem": 1002,
      "ert": 1003,
      "ublic": 1004,
      "Ġ190": 1005,
      "ech": 1006,
      "rowspan": 1007,
      "ĠGe": 1008,
      "ĠFrench": 1009,
      "oss": 1010,
      "ĠEd": 1011,
      "inist": 1012,
      "form": 1013,
      "ke": 1014,
      "ĠDec": 1015,
      "hil": 1016,
      "Ġwill": 1017,
      "Ġuse": 1018,
      "Ġmake": 1019,
      "inal": 1020,
      "ctor": 1021,
      "born": 1022,
      "ctober": 1023,
      "aid": 1024,
      "eptember": 1025,
      "ĠJanuary": 1026,
      "ries": 1027,
      "ious": 1028,
      "ger": 1029,
      "cess": 1030,
      "ugust": 1031,
      "Ġoften": 1032,
      "ets": 1033,
      "pril": 1034,
      "aint": 1035,
      "Ġlong": 1036,
      "ology": 1037,
      "Ġbirths": 1038,
      "air": 1039,
      "eed": 1040,
      "40": 1041,
      "Ġdeath": 1042,
      "ĠRet": 1043,
      "Ġtelevision": 1044,
      "umber": 1045,
      "erm": 1046,
      "Ġdec": 1047,
      "ific": 1048,
      "ĠâĢĶ": 1049,
      "25": 1050,
      "rough": 1051,
      "21": 1052,
      "ĠCar": 1053,
      "col": 1054,
      "Ġperson": 1055,
      "its": 1056,
      "pen": 1057,
      "ĠAd": 1058,
      "Ġchang": 1059,
      "ĠJune": 1060,
      "ĠSouth": 1061,
      "Ġind": 1062,
      "Ġduring": 1063,
      "ĠNorth": 1064,
      "Ġsmall": 1065,
      "cy": 1066,
      "eat": 1067,
      "ĠNov": 1068,
      "ines": 1069,
      "ouse": 1070,
      "ai": 1071,
      "Ġmat": 1072,
      "Ġdist": 1073,
      "Ġman": 1074,
      "itt": 1075,
      "Ġunder": 1076,
      "ians": 1077,
      "ital": 1078,
      "ved": 1079,
      "ris": 1080,
      "Ġpre": 1081,
      "ampions": 1082,
      "Ġcap": 1083,
      "sh": 1084,
      "60": 1085,
      "ĠSeptember": 1086,
      "ĠOctober": 1087,
      "arly": 1088,
      "my": 1089,
      "ants": 1090,
      "akes": 1091,
      "ĠUniversity": 1092,
      "ĠMarch": 1093,
      "Ġrele": 1094,
      "ĠSe": 1095,
      "ĠAugust": 1096,
      "Ġplayed": 1097,
      "Ġalbum": 1098,
      "rand": 1099,
      "ĠWest": 1100,
      "Ġstud": 1101,
      "emb": 1102,
      "ĠOr": 1103,
      "ĠSw": 1104,
      "Ġ2007": 1105,
      "omet": 1106,
      "ternational": 1107,
      "Ġthen": 1108,
      "ĠApril": 1109,
      "Ġkill": 1110,
      "Ġcar": 1111,
      "Ġchar": 1112,
      "vel": 1113,
      "ative": 1114,
      "ĠFl": 1115,
      "âĢĶâĢĶ": 1116,
      "let": 1117,
      "ĠAward": 1118,
      "ett": 1119,
      "Ġsup": 1120,
      "Ġhel": 1121,
      "ĠJuly": 1122,
      "ĠGo": 1123,
      "Ġword": 1124,
      "gest": 1125,
      "cent": 1126,
      "ĠCanad": 1127,
      "ĠFrance": 1128,
      "Ġthree": 1129,
      "Ġbel": 1130,
      "Ġlangu": 1131,
      "Ġsystem": 1132,
      "Ġestab": 1133,
      "ĠRep": 1134,
      "Ġmovie": 1135,
      "ĠChrist": 1136,
      "Ġactor": 1137,
      "Ġno": 1138,
      "ck": 1139,
      "Ġsame": 1140,
      "ĠTe": 1141,
      "ĠDecember": 1142,
      "ĠPr": 1143,
      "duc": 1144,
      "amed": 1145,
      "Ġ2006": 1146,
      "Ġsong": 1147,
      "Ġdef": 1148,
      "Ġthrough": 1149,
      "ĠCal": 1150,
      "chool": 1151,
      "ains": 1152,
      "FA": 1153,
      "ise": 1154,
      "ĠWh": 1155,
      "ĠRel": 1156,
      "ĠAll": 1157,
      "fore": 1158,
      "ĠSome": 1159,
      "Ġgovern": 1160,
      "Ġmain": 1161,
      "ject": 1162,
      "Ġplayers": 1163,
      "vent": 1164,
      "ull": 1165,
      "ebru": 1166,
      "ebruary": 1167,
      "ĠRuss": 1168,
      "Ġart": 1169,
      "gy": 1170,
      "ĠCity": 1171,
      "elf": 1172,
      "otal": 1173,
      "ĠHow": 1174,
      "Ġpolitician": 1175,
      "rans": 1176,
      "ĠGu": 1177,
      "Ġ&": 1178,
      "reen": 1179,
      "ondon": 1180,
      "ĠNovember": 1181,
      "ced": 1182,
      "ĠAustral": 1183,
      "Ġnumber": 1184,
      "Ġlater": 1185,
      "Ġ11": 1186,
      "illion": 1187,
      "arn": 1188,
      "ox": 1189,
      "Ġback": 1190,
      "Ġband": 1191,
      "Ġ2008": 1192,
      "com": 1193,
      "alt": 1194,
      "Ġlead": 1195,
      "Ġ.": 1196,
      "Ġmod": 1197,
      "Ġcre": 1198,
      "ĠX": 1199,
      "ĠCount": 1200,
      "icial": 1201,
      "ĠEngland": 1202,
      "ung": 1203,
      "Ġmet": 1204,
      "Ġsecond": 1205,
      "Ġsinger": 1206,
      "\",": 1207,
      "tt": 1208,
      "Ġdep": 1209,
      "Ġret": 1210,
      "ield": 1211,
      "Ġtyp": 1212,
      "ĠAf": 1213,
      "Ġdid": 1214,
      "ĠWill": 1215,
      "Ġbook": 1216,
      "Ġ2005": 1217,
      "Ġgames": 1218,
      "resent": 1219,
      "90": 1220,
      "Ġam": 1221,
      "Ġsub": 1222,
      "Ġwater": 1223,
      "dom": 1224,
      "til": 1225,
      "Ġhelp": 1226,
      "ody": 1227,
      "Ġdire": 1228,
      "thern": 1229,
      "ample": 1230,
      "Ġbeing": 1231,
      "Ġwell": 1232,
      "ished": 1233,
      "ĠAfter": 1234,
      "ĠGermany": 1235,
      "aking": 1236,
      "Ġold": 1237,
      "Ġarea": 1238,
      "Ġstate": 1239,
      "27": 1240,
      "erv": 1241,
      "urg": 1242,
      "196": 1243,
      "Ġlife": 1244,
      "Ġany": 1245,
      "Ã¼": 1246,
      "hes": 1247,
      "Ġthese": 1248,
      "ĠPresident": 1249,
      "ster": 1250,
      "Ġhow": 1251,
      "28": 1252,
      "Ġcons": 1253,
      "ement": 1254,
      "ried": 1255,
      "ĠAb": 1256,
      "ĠFebruary": 1257,
      "areer": 1258,
      "ĠTr": 1259,
      "unic": 1260,
      "arm": 1261,
      "aur": 1262,
      "ĠLondon": 1263,
      "ony": 1264,
      "ional": 1265,
      "ives": 1266,
      "Ġchild": 1267,
      "2000": 1268,
      "Ġimport": 1269,
      "Ġacc": 1270,
      "Ġcentury": 1271,
      "ĠNational": 1272,
      "af": 1273,
      "ural": 1274,
      "lishments": 1275,
      "Ġaround": 1276,
      "ank": 1277,
      "Ġusually": 1278,
      "arth": 1279,
      "lands": 1280,
      "Ġpages": 1281,
      "ove": 1282,
      "ae": 1283,
      "Ġprov": 1284,
      "Ġair": 1285,
      "ollow": 1286,
      "Ġinst": 1287,
      "ating": 1288,
      "33": 1289,
      "ĠPol": 1290,
      "ble": 1291,
      "Ġsur": 1292,
      "Ġme": 1293,
      "ĠMan": 1294,
      "yn": 1295,
      "Ġac": 1296,
      "ĠWhen": 1297,
      "Ġ2004": 1298,
      "rest": 1299,
      "ĠRe": 1300,
      "aul": 1301,
      "26": 1302,
      "Ġbefore": 1303,
      "ether": 1304,
      "amb": 1305,
      "Ġbro": 1306,
      "ĠEm": 1307,
      "ner": 1308,
      "Ġcould": 1309,
      "Ġgu": 1310,
      "Ġanim": 1311,
      "ole": 1312,
      "ĠGeor": 1313,
      "Ġformer": 1314,
      "ats": 1315,
      "ĠDe": 1316,
      "Ġrecord": 1317,
      "Ġrem": 1318,
      "ham": 1319,
      "Ġgame": 1320,
      "Ġeach": 1321,
      "Ġright": 1322,
      "Ġpr": 1323,
      "Ġ25": 1324,
      "Ġfour": 1325,
      "ĠCent": 1326,
      "ived": 1327,
      "ĠRoman": 1328,
      "Ġnear": 1329,
      "ĠBr": 1330,
      "ĠRiver": 1331,
      "ĠUS": 1332,
      "ane": 1333,
      "Ġcountry": 1334,
      "rict": 1335,
      "ĠAm": 1336,
      "Ġuntil": 1337,
      "ĠRelated": 1338,
      "Ġed": 1339,
      "Ġsim": 1340,
      "Ġwon": 1341,
      "ivision": 1342,
      "Ġexample": 1343,
      "hys": 1344,
      "cer": 1345,
      "Ġcompos": 1346,
      "Ġactress": 1347,
      "urch": 1348,
      "Ġown": 1349,
      "Ġ2000": 1350,
      "eng": 1351,
      "ĠThese": 1352,
      "Ġstarted": 1353,
      "Ġimportant": 1354,
      "riv": 1355,
      "ampionship": 1356,
      "ĠEx": 1357,
      "Ġstr": 1358,
      "ĠHis": 1359,
      "ple": 1360,
      "Ġagainst": 1361,
      "Ġland": 1362,
      "ode": 1363,
      "ĠNor": 1364,
      "Ġhum": 1365,
      "ĠComm": 1366,
      "the": 1367,
      "Ġnational": 1368,
      "Ġtown": 1369,
      "ald": 1370,
      "ird": 1371,
      "Ġinter": 1372,
      "ible": 1373,
      "Ġgener": 1374,
      "iew": 1375,
      "Ġmed": 1376,
      "by": 1377,
      "Ġ189": 1378,
      "uk": 1379,
      "29": 1380,
      "ĠHar": 1381,
      "St": 1382,
      "Ġ'": 1383,
      "ret": 1384,
      "nd": 1385,
      "Ġ2009": 1386,
      "Ġsaid": 1387,
      "Ġ2001": 1388,
      "ĠJapanese": 1389,
      "Ġdied": 1390,
      ".\"": 1391,
      "ilm": 1392,
      "ought": 1393,
      "ĠAnd": 1394,
      "Ġsl": 1395,
      "ĠâĢ": 1396,
      "ows": 1397,
      "istan": 1398,
      "ille": 1399,
      "fl": 1400,
      "Ġstat": 1401,
      "Total": 1402,
      "Ġif": 1403,
      "rime": 1404,
      "ross": 1405,
      "ĠBe": 1406,
      "70": 1407,
      "Ġfollow": 1408,
      "Ġreleased": 1409,
      "ĠEl": 1410,
      "ĠHer": 1411,
      "Ġcommon": 1412,
      "80": 1413,
      "que": 1414,
      "Ch": 1415,
      "âĢĻ": 1416,
      "Ġgovernment": 1417,
      "Ġ30": 1418,
      "Ġseason": 1419,
      "oon": 1420,
      "34": 1421,
      "ĠItalian": 1422,
      "eter": 1423,
      "Ã¡": 1424,
      "Ġcountries": 1425,
      "ĠOne": 1426,
      "Ġob": 1427,
      "Ġmar": 1428,
      "ipal": 1429,
      "ler": 1430,
      "Ġwriter": 1431,
      "ĠAmer": 1432,
      "ometimes": 1433,
      "Ġpower": 1434,
      "ĠPar": 1435,
      "ĠWilliam": 1436,
      "Ġdr": 1437,
      "ling": 1438,
      "ky": 1439,
      "ĠAir": 1440,
      "Ġplace": 1441,
      "ilt": 1442,
      "ature": 1443,
      "Ġnamed": 1444,
      "pps": 1445,
      "ajor": 1446,
      "Ġ2003": 1447,
      "side": 1448,
      "Ġrep": 1449,
      "ĠBar": 1450,
      "colspan": 1451,
      "ales": 1452,
      "ĠAng": 1453,
      "ography": 1454,
      "anish": 1455,
      "riend": 1456,
      "Ġ2010": 1457,
      "ches": 1458,
      "Ġboth": 1459,
      "for": 1460,
      "ience": 1461,
      "Ġestablishments": 1462,
      "ino": 1463,
      "Ġrun": 1464,
      "ideo": 1465,
      "Ġmil": 1466,
      "Ġlarge": 1467,
      "ney": 1468,
      "\"|-": 1469,
      "day": 1470,
      "ones": 1471,
      "Ġent": 1472,
      "Ġsign": 1473,
      "olution": 1474,
      "ĠInternational": 1475,
      "ĠSy": 1476,
      "Ġgr": 1477,
      "\"|-||": 1478,
      "Ġorig": 1479,
      "Ġmeans": 1480,
      "ered": 1481,
      "Ġway": 1482,
      "Ġfamily": 1483,
      "raz": 1484,
      "Ġloc": 1485,
      "ĠPart": 1486,
      "lex": 1487,
      "ĠHowever": 1488,
      "Ġbuild": 1489,
      "ford": 1490,
      "Ġorgan": 1491,
      "Ġbas": 1492,
      "ĠHistory": 1493,
      "Ġmillion": 1494,
      "Ġmovies": 1495,
      "alk": 1496,
      "ama": 1497,
      "istics": 1498,
      "rat": 1499,
      "ĠEurope": 1500,
      "Ġ24": 1501,
      "onom": 1502,
      "ues": 1503,
      "Ġsever": 1504,
      "Ġmuch": 1505,
      "Ġ2002": 1506,
      "Ġincluding": 1507,
      "ĠKingdom": 1508,
      "Ġclub": 1509,
      "ĠClub": 1510,
      "ĠMon": 1511,
      "Ġlaw": 1512,
      "Ġhigh": 1513,
      "attle": 1514,
      "Ġlast": 1515,
      "Ġget": 1516,
      "Ġinv": 1517,
      "Ġwhat": 1518,
      "ĠChar": 1519,
      "velop": 1520,
      "gen": 1521,
      "ĠCounty": 1522,
      "Ġproduc": 1523,
      "Ġfamous": 1524,
      "omin": 1525,
      "anc": 1526,
      "Ġfootballer": 1527,
      "Ġ2014": 1528,
      "ĠPer": 1529,
      "Ġnow": 1530,
      "idd": 1531,
      "ined": 1532,
      "Ġwar": 1533,
      "ĠAmerica": 1534,
      "ata": 1535,
      "ene": 1536,
      "ful": 1537,
      "Ġsince": 1538,
      "app": 1539,
      "Ġwhile": 1540,
      "ius": 1541,
      "Ġdevelop": 1542,
      "ĠMc": 1543,
      "ute": 1544,
      "rown": 1545,
      "Ġlive": 1546,
      "Living": 1547,
      "ze": 1548,
      "Ġlanguage": 1549,
      "ena": 1550,
      "35": 1551,
      "ĠSup": 1552,
      "Go": 1553,
      "Ġborn": 1554,
      "Ġ2012": 1555,
      "unicipal": 1556,
      "ĠSch": 1557,
      "ular": 1558,
      "aces": 1559,
      "iation": 1560,
      "Ġthings": 1561,
      "Ġoper": 1562,
      "Ġass": 1563,
      "Ġadd": 1564,
      "Ġ188": 1565,
      "remier": 1566,
      "ĠOff": 1567,
      "mb": 1568,
      "ps": 1569,
      "inister": 1570,
      "ĠMus": 1571,
      "Ġbig": 1572,
      "ara": 1573,
      "Ġleft": 1574,
      "ĠMany": 1575,
      "Ġph": 1576,
      "Ġtrans": 1577,
      "Ġgroups": 1578,
      "ange": 1579,
      "embers": 1580,
      "gram": 1581,
      "ĠYear": 1582,
      "ĠPaul": 1583,
      "Ġappear": 1584,
      "aster": 1585,
      "iga": 1586,
      "Ġstill": 1587,
      "Ġevery": 1588,
      "Ġpopular": 1589,
      "Ġ23": 1590,
      "ĠPhil": 1591,
      "Ġext": 1592,
      "..": 1593,
      "ring": 1594,
      "ĠGl": 1595,
      "ĠDav": 1596,
      "Ġseveral": 1597,
      "ush": 1598,
      "Ġmin": 1599,
      "ized": 1600,
      "rew": 1601,
      "Ġdeaths": 1602,
      "ourn": 1603,
      "Ġcontro": 1604,
      "Ġschool": 1605,
      "bert": 1606,
      "Ġ22": 1607,
      "ana": 1608,
      "Ġ2011": 1609,
      "omes": 1610,
      "Ġ2015": 1611,
      "omen": 1612,
      "acter": 1613,
      "ope": 1614,
      "itz": 1615,
      "duct": 1616,
      "Ã³": 1617,
      "Ġearly": 1618,
      "Ġ26": 1619,
      "Ġgood": 1620,
      "Ġ2017": 1621,
      "Ġ21": 1622,
      "ĠBel": 1623,
      "ico": 1624,
      "ĠSer": 1625,
      "Ġeven": 1626,
      "fect": 1627,
      "Ã¶": 1628,
      "Ġdown": 1629,
      "37": 1630,
      "195": 1631,
      "epend": 1632,
      "2005": 1633,
      "Ġexp": 1634,
      "100": 1635,
      "ially": 1636,
      "Ġdoes": 1637,
      "Ġday": 1638,
      "fess": 1639,
      "Ġ100": 1640,
      "ĠEast": 1641,
      "2006": 1642,
      "reek": 1643,
      "led": 1644,
      "Ġsk": 1645,
      "36": 1646,
      "Ġint": 1647,
      "Ġhistory": 1648,
      "cept": 1649,
      "ven": 1650,
      "ator": 1651,
      "lymp": 1652,
      "Ġneed": 1653,
      "Ġbody": 1654,
      "omb": 1655,
      "Ġ1999": 1656,
      "Ġanother": 1657,
      "ĠChampionship": 1658,
      "uck": 1659,
      "ĠBest": 1660,
      "iter": 1661,
      "Ġlist": 1662,
      "Ġnorth": 1663,
      "ee": 1664,
      "iod": 1665,
      "Ġcaus": 1666,
      "ĠMost": 1667,
      "ĠBro": 1668,
      "sc": 1669,
      "Ġ2013": 1670,
      "ruct": 1671,
      "razil": 1672,
      "hel": 1673,
      "2007": 1674,
      "Ġ#": 1675,
      "Ġpopulation": 1676,
      "Ġspecies": 1677,
      "ĠMed": 1678,
      "Ġpar": 1679,
      "Ġattack": 1680,
      "istor": 1681,
      "ĠPark": 1682,
      "Ġbased": 1683,
      "Ġvers": 1684,
      "Ġ187": 1685,
      "Ġcareer": 1686,
      "Ġchildren": 1687,
      "Ġter": 1688,
      "Ġ1998": 1689,
      "ĠNot": 1690,
      "ĠLou": 1691,
      "Ġsuc": 1692,
      "Ġbegan": 1693,
      "ivid": 1694,
      "lin": 1695,
      "Ġserv": 1696,
      "ĠBer": 1697,
      "Ġ27": 1698,
      "Ġtimes": 1699,
      "Goals": 1700,
      "2004": 1701,
      "ago": 1702,
      "ĠPort": 1703,
      "pis": 1704,
      "Ġclass": 1705,
      "ĠLa": 1706,
      "Ġ186": 1707,
      "Ġ2016": 1708,
      "burg": 1709,
      "Ġprot": 1710,
      "ĠCo": 1711,
      "ĠHol": 1712,
      "ĠJames": 1713,
      "ffect": 1714,
      "Ġinclude": 1715,
      "of": 1716,
      "Ġregion": 1717,
      "ĠState": 1718,
      "ipp": 1719,
      "ington": 1720,
      "eder": 1721,
      "Apps": 1722,
      "Ġset": 1723,
      "Ġ28": 1724,
      "Ġsoc": 1725,
      "itary": 1726,
      "Ġpass": 1727,
      "Ġjo": 1728,
      "ĠPri": 1729,
      "oard": 1730,
      "ĠSoc": 1731,
      "Ġcapital": 1732,
      "uter": 1733,
      "sy": 1734,
      "tal": 1735,
      "Ġbest": 1736,
      "ĠMich": 1737,
      "iven": 1738,
      "Ġbecome": 1739,
      "Ġbeg": 1740,
      "Ġhead": 1741,
      "uth": 1742,
      "AppsGoals": 1743,
      "ĠAustralia": 1744,
      "ots": 1745,
      "uff": 1746,
      "ÃŃ": 1747,
      "Ġphys": 1748,
      "ien": 1749,
      "ices": 1750,
      "ng": 1751,
      "ĠScott": 1752,
      "ĠFI": 1753,
      "Ġjust": 1754,
      "Ġinc": 1755,
      "Ġ1990": 1756,
      "duction": 1757,
      "31": 1758,
      "ĠRepublic": 1759,
      "Ġrock": 1760,
      "itar": 1761,
      "iforn": 1762,
      "peror": 1763,
      "Ġlook": 1764,
      "Ġfe": 1765,
      "32": 1766,
      "berg": 1767,
      "men": 1768,
      "Ġide": 1769,
      "artment": 1770,
      "45": 1771,
      "agn": 1772,
      "Ġmajor": 1773,
      "ĠGre": 1774,
      "stit": 1775,
      "river": 1776,
      "mpire": 1777,
      "Ġopen": 1778,
      "Ġec": 1779,
      "Ġwant": 1780,
      "ww": 1781,
      "Ġdesign": 1782,
      "Ġvar": 1783,
      "ĠIndia": 1784,
      "ĠEuropean": 1785,
      "rian": 1786,
      "38": 1787,
      "ases": 1788,
      "de": 1789,
      "Ġwritten": 1790,
      "Ġprogram": 1791,
      "ael": 1792,
      "ape": 1793,
      "read": 1794,
      "ĠDay": 1795,
      "Ġ2018": 1796,
      "99": 1797,
      "Ġsold": 1798,
      "ifornia": 1799,
      "ĠChina": 1800,
      "ĠSan": 1801,
      "2003": 1802,
      "Ġleg": 1803,
      "ells": 1804,
      "ĠRed": 1805,
      "ĠDis": 1806,
      "Ġsouth": 1807,
      "alth": 1808,
      "2008": 1809,
      "ges": 1810,
      "ĠPeople": 1811,
      "2010": 1812,
      "urrent": 1813,
      "Ġcontin": 1814,
      "ĠGeorge": 1815,
      "rote": 1816,
      "ves": 1817,
      "ĠPak": 1818,
      "ories": 1819,
      "Ġ,": 1820,
      "Ġ1996": 1821,
      "ĠMinister": 1822,
      "Ġparts": 1823,
      "ours": 1824,
      "Ġbuilt": 1825,
      "Ġred": 1826,
      "atin": 1827,
      "Ġusing": 1828,
      "ĠSm": 1829,
      "ĠGr": 1830,
      "writ": 1831,
      "Ġkm": 1832,
      "Ġlargest": 1833,
      "ĠHen": 1834,
      "ĠComp": 1835,
      "ĠRussian": 1836,
      "Ġref": 1837,
      "ental": 1838,
      "lo": 1839,
      "Ġsometimes": 1840,
      "Ġmembers": 1841,
      "oung": 1842,
      "Ġcame": 1843,
      "ext": 1844,
      "Ġmanag": 1845,
      "Ġ29": 1846,
      "ĠPh": 1847,
      "Ġgen": 1848,
      "ĠGreat": 1849,
      "ĠCalifornia": 1850,
      "Ġshort": 1851,
      "pro": 1852,
      "ead": 1853,
      "ayer": 1854,
      "ria": 1855,
      "Ġstatistics": 1856,
      "ides": 1857,
      "ĠQue": 1858,
      "ances": 1859,
      "Ġexpl": 1860,
      "ĠRober": 1861,
      "ĠBrazil": 1862,
      "yle": 1863,
      "In": 1864,
      "ĠFIFA": 1865,
      "ropical": 1866,
      "ĠOlymp": 1867,
      "line": 1868,
      "inc": 1869,
      "Ġ1997": 1870,
      "ridge": 1871,
      "Ġrul": 1872,
      "2002": 1873,
      "ĠParty": 1874,
      "Ġsee": 1875,
      "rain": 1876,
      "ĠRich": 1877,
      "44": 1878,
      "ĠDivision": 1879,
      "ĠIndian": 1880,
      "na": 1881,
      "oe": 1882,
      "rica": 1883,
      "Ġhome": 1884,
      "Ġfood": 1885,
      "astern": 1886,
      "ĠFirst": 1887,
      "Ġlight": 1888,
      "iness": 1889,
      "Ġwrote": 1890,
      "irc": 1891,
      "ĠSpanish": 1892,
      "arch": 1893,
      "Ġcreated": 1894,
      "ĠSaint": 1895,
      "echn": 1896,
      "Ġeng": 1897,
      "eak": 1898,
      "Ġtog": 1899,
      "ĠUnion": 1900,
      "ĠGod": 1901,
      "Ġbus": 1902,
      "aut": 1903,
      "ys": 1904,
      "ired": 1905,
      "Ġgreat": 1906,
      "apt": 1907,
      "Ġtogether": 1908,
      "Ġocc": 1909,
      "ĠEarth": 1910,
      "ĠVal": 1911,
      "ĠQu": 1912,
      "Ġwest": 1913,
      "rig": 1914,
      "Ġbelie": 1915,
      "Ġtop": 1916,
      "ĠPal": 1917,
      "39": 1918,
      "Ġtem": 1919,
      "2001": 1920,
      "ĠJack": 1921,
      "Ġdesc": 1922,
      "Ġgiven": 1923,
      "Ġwebsite": 1924,
      "Ġ1994": 1925,
      "Ġfin": 1926,
      "aves": 1927,
      "ĠRec": 1928,
      "urrican": 1929,
      "Ġfew": 1930,
      "aving": 1931,
      "aced": 1932,
      "inds": 1933,
      "ids": 1934,
      "ĠIf": 1935,
      "inning": 1936,
      "Ġthought": 1937,
      "ize": 1938,
      "amm": 1939,
      "Ġem": 1940,
      "cient": 1941,
      "ander": 1942,
      "Ġbre": 1943,
      "ness": 1944,
      "250": 1945,
      "Ġwent": 1946,
      "ĠJos": 1947,
      "ittle": 1948,
      "Ġ1995": 1949,
      "adio": 1950,
      "ĠMont": 1951,
      "ĠKore": 1952,
      "Le": 1953,
      "osition": 1954,
      "iety": 1955,
      "Ġsupport": 1956,
      "ĠPrime": 1957,
      "07": 1958,
      "Ġperiod": 1959,
      "Ġes": 1960,
      "ĠBy": 1961,
      "Ġterm": 1962,
      "Ġvideo": 1963,
      "ĠPakistan": 1964,
      "oice": 1965,
      "ĠReg": 1966,
      "47": 1967,
      "Ġequ": 1968,
      "ania": 1969,
      "ĠAss": 1970,
      "Ġtook": 1971,
      "Ġsol": 1972,
      "mon": 1973,
      "Ġla": 1974,
      "ĠDavid": 1975,
      "ux": 1976,
      "Ġhand": 1977,
      "ĠBlack": 1978,
      "ĠMe": 1979,
      "Ġ=": 1980,
      "ĠWe": 1981,
      "Ġ2019": 1982,
      "II": 1983,
      "Ġ+": 1984,
      "rum": 1985,
      "ĠTur": 1986,
      "osp": 1987,
      "ĠMor": 1988,
      "Ġfather": 1989,
      "Ġcult": 1990,
      "iddle": 1991,
      "riev": 1992,
      "ka": 1993,
      "Ġhuman": 1994,
      "ounc": 1995,
      "Ġmoved": 1996,
      "itions": 1997,
      "ĠGovern": 1998,
      "ways": 1999,
      "iol": 2000,
      "ĠCharles": 2001,
      "Ġstop": 2002,
      "An": 2003,
      "ĠChristian": 2004,
      "Ġann": 2005,
      "adium": 2006,
      "itle": 2007,
      "ĠCanadian": 2008,
      "ured": 2009,
      "48": 2010,
      "ergy": 2011,
      "ught": 2012,
      "Ġ1980": 2013,
      "Ġrelig": 2014,
      "Ġkilled": 2015,
      "uel": 2016,
      "ĠTeam": 2017,
      "edy": 2018,
      "Ġspecial": 2019,
      "ĠBC": 2020,
      "Ġche": 2021,
      "Ġproble": 2022,
      "ĠGrand": 2023,
      "2009": 2024,
      "inese": 2025,
      "ior": 2026,
      "ĠLouis": 2027,
      "alf": 2028,
      "ĠGreek": 2029,
      "Ġsuccess": 2030,
      "Ġput": 2031,
      "ilar": 2032,
      "ief": 2033,
      "Ġson": 2034,
      "ification": 2035,
      "46": 2036,
      "avy": 2037,
      "erence": 2038,
      "ivil": 2039,
      ".,": 2040,
      "Ġpartic": 2041,
      "ĠEmpire": 2042,
      "Ġ/": 2043,
      "ummer": 2044,
      "Ġtake": 2045,
      "Ġtrad": 2046,
      "Ġbecomes": 2047,
      "Ġgl": 2048,
      "ĠGold": 2049,
      "ĠFlor": 2050,
      "Ġdirect": 2051,
      "ĠChurch": 2052,
      "osed": 2053,
      "Ġ1992": 2054,
      "atural": 2055,
      "ano": 2056,
      "ty": 2057,
      "06": 2058,
      "work": 2059,
      "Ġcomposer": 2060,
      "Ġmakes": 2061,
      "rieved": 2062,
      "1999": 2063,
      "Ġyou": 2064,
      "ari": 2065,
      "ĠNo": 2066,
      "Ġmunicipal": 2067,
      "Ġpublic": 2068,
      "Ġless": 2069,
      "Al": 2070,
      "05": 2071,
      "ĠMy": 2072,
      "ility": 2073,
      "Ġorder": 2074,
      "Ġmaking": 2075,
      "ained": 2076,
      "Ġgrow": 2077,
      "ĠAngel": 2078,
      "ĠCanada": 2079,
      "ically": 2080,
      "oviet": 2081,
      "ission": 2082,
      "Ġofficial": 2083,
      "Ġline": 2084,
      "Ġstand": 2085,
      "Ġchem": 2086,
      "ĠHouse": 2087,
      "ula": 2088,
      "iec": 2089,
      "ĠItaly": 2090,
      "ĠDuring": 2091,
      "âĢĿ": 2092,
      "not": 2093,
      "ĠAlex": 2094,
      "off": 2095,
      "ij": 2096,
      "ĠAfrica": 2097,
      "ĠApp": 2098,
      "Ġ185": 2099,
      "wards": 2100,
      "ĠFrom": 2101,
      "formation": 2102,
      "Ġprovince": 2103,
      "unt": 2104,
      "ĠRo": 2105,
      "Ġmus": 2106,
      "ract": 2107,
      "ery": 2108,
      "ĠSl": 2109,
      "order": 2110,
      "Ġtype": 2111,
      "Ġsingle": 2112,
      "Ġprofess": 2113,
      "Ġlived": 2114,
      "Ġsw": 2115,
      "eal": 2116,
      "imate": 2117,
      "osop": 2118,
      "Ġ1993": 2119,
      "Ġmodern": 2120,
      "ored": 2121,
      "ised": 2122,
      "Ġfeat": 2123,
      "Ar": 2124,
      "ĠMex": 2125,
      "ĠRobert": 2126,
      "ĠDr": 2127,
      "75": 2128,
      "aken": 2129,
      "Ġcharacter": 2130,
      "elt": 2131,
      "ĠOfficial": 2132,
      "ĠBut": 2133,
      "ims": 2134,
      "lege": 2135,
      "west": 2136,
      "ĠAct": 2137,
      "iction": 2138,
      "ĠâĢľ": 2139,
      "Ġlot": 2140,
      "Ġmember": 2141,
      "ĠTo": 2142,
      "Ġpubl": 2143,
      "urricane": 2144,
      "nect": 2145,
      "Ġmen": 2146,
      "||||||||": 2147,
      "Ġreturn": 2148,
      "ĠPress": 2149,
      "Ġliving": 2150,
      "Ã¨": 2151,
      "Ġmy": 2152,
      "1998": 2153,
      "Ġage": 2154,
      "ĠSwed": 2155,
      "110": 2156,
      "Ġcr": 2157,
      "ĠRoy": 2158,
      "Ġreal": 2159,
      "Ġgod": 2160,
      "Ġ1970": 2161,
      "outhern": 2162,
      "oul": 2163,
      "ĠThom": 2164,
      "iro": 2165,
      "ida": 2166,
      "49": 2167,
      "ĠNe": 2168,
      "Premier": 2169,
      "ared": 2170,
      "Ġrest": 2171,
      "Ġalong": 2172,
      "Ġwithout": 2173,
      "Ġpresident": 2174,
      "ĠEmperor": 2175,
      "Ġhard": 2176,
      "ization": 2177,
      "Football": 2178,
      "ĠPre": 2179,
      "ĠMart": 2180,
      "Ġ31": 2181,
      "Ġallow": 2182,
      "rick": 2183,
      "Ġresp": 2184,
      "Ġplan": 2185,
      "Ġwords": 2186,
      "ream": 2187,
      "Â°": 2188,
      "ourt": 2189,
      "Ġval": 2190,
      "):": 2191,
      "unk": 2192,
      "01": 2193,
      "42": 2194,
      "ration": 2195,
      "ĠHenry": 2196,
      "Ġthose": 2197,
      "Ġsongs": 2198,
      "Ġmoney": 2199,
      "Ġstrong": 2200,
      "Ġsix": 2201,
      "irl": 2202,
      "most": 2203,
      "Ġmatch": 2204,
      "olic": 2205,
      "Ġchange": 2206,
      "Ġsimilar": 2207,
      "ĠSoviet": 2208,
      "Ġhig": 2209,
      "Ġthird": 2210,
      "Un": 2211,
      "Ġ1991": 2212,
      "Ġqual": 2213,
      "lant": 2214,
      "li": 2215,
      "Ġshould": 2216,
      "Ġcurrent": 2217,
      "Ġread": 2218,
      "ouncil": 2219,
      "Ġda": 2220,
      "raft": 2221,
      "Ġnext": 2222,
      "ĠRichard": 2223,
      "ertain": 2224,
      "08": 2225,
      "Ġsay": 2226,
      "ĠEv": 2227,
      "eep": 2228,
      "ona": 2229,
      "Ġvis": 2230,
      "ĠChinese": 2231,
      "ein": 2232,
      "ecret": 2233,
      "Ġcontrol": 2234,
      "04": 2235,
      "BC": 2236,
      "Ġmusician": 2237,
      "lear": 2238,
      "hemat": 2239,
      "Ġking": 2240,
      "ĠBen": 2241,
      "ule": 2242,
      "Ġz": 2243,
      "Ġsent": 2244,
      "yd": 2245,
      "Ġbooks": 2246,
      "--": 2247,
      "era": 2248,
      "though": 2249,
      "03": 2250,
      "ĠList": 2251,
      "Ġturn": 2252,
      "ma": 2253,
      "adem": 2254,
      "95": 2255,
      "Ġfive": 2256,
      "atch": 2257,
      "Ġdays": 2258,
      "Ġanimals": 2259,
      "Ġactors": 2260,
      "ĠSuper": 2261,
      "ĠCath": 2262,
      "Ġfight": 2263,
      "Ġcommun": 2264,
      "ĠBec": 2265,
      "Ġpresent": 2266,
      "Ġ1989": 2267,
      "Ġcy": 2268,
      "ĠSim": 2269,
      "ude": 2270,
      "Ġvol": 2271,
      "urt": 2272,
      "Ġactiv": 2273,
      "gent": 2274,
      "Ġrev": 2275,
      "Ġdest": 2276,
      "Ġtotal": 2277,
      "ĠAc": 2278,
      "ĠArt": 2279,
      "Ġfilm": 2280,
      "writer": 2281,
      "unn": 2282,
      "emoc": 2283,
      "ĠMil": 2284,
      "Ġopp": 2285,
      "ĠRes": 2286,
      "Ġscient": 2287,
      "ĠUp": 2288,
      "ĠHall": 2289,
      "Ġarch": 2290,
      "ockey": 2291,
      "Eng": 2292,
      "ĠCor": 2293,
      "lam": 2294,
      "earch": 2295,
      "Ġstory": 2296,
      "ston": 2297,
      "EFA": 2298,
      "Ġmark": 2299,
      "Ġsound": 2300,
      "Ġeconom": 2301,
      "utch": 2302,
      "Ġbi": 2303,
      "Ġgoals": 2304,
      "Ġshows": 2305,
      "Ġphil": 2306,
      "Ġmust": 2307,
      "Ġstates": 2308,
      "//": 2309,
      "43": 2310,
      "gian": 2311,
      "41": 2312,
      "uthor": 2313,
      "gar": 2314,
      "Ġfollowing": 2315,
      "ek": 2316,
      "ĠSal": 2317,
      "1997": 2318,
      "avel": 2319,
      "Ġdirector": 2320,
      "rican": 2321,
      "Ġside": 2322,
      "ĠPat": 2323,
      "Ġdiff": 2324,
      "ĠScottish": 2325,
      "ĠDon": 2326,
      "edia": 2327,
      "ĠRev": 2328,
      "Ġguitar": 2329,
      "ĠJew": 2330,
      "ini": 2331,
      "oms": 2332,
      "ĠYou": 2333,
      "://": 2334,
      "ĠIsland": 2335,
      "ĠDist": 2336,
      "GB": 2337,
      "ĠMichael": 2338,
      "Ġperform": 2339,
      "09": 2340,
      "Ġtw": 2341,
      "Ġversion": 2342,
      "Ġfriend": 2343,
      "Ġheld": 2344,
      "uke": 2345,
      "ĠAustralian": 2346,
      "ols": 2347,
      "raw": 2348,
      "eneral": 2349,
      "rison": 2350,
      "ĠMal": 2351,
      "ĠIts": 2352,
      "Ġseen": 2353,
      "Ġprocess": 2354,
      "Ġ2020": 2355,
      "eph": 2356,
      "Ġcolor": 2357,
      "300": 2358,
      "Th": 2359,
      "ĠSing": 2360,
      "Ġwomen": 2361,
      "Ġcities": 2362,
      "Ser": 2363,
      "iron": 2364,
      "ense": 2365,
      "Ġrepl": 2366,
      "ashington": 2367,
      "iers": 2368,
      "AppsGoalsAppsGoals": 2369,
      "ĠAsia": 2370,
      "ĠFootball": 2371,
      "Ġconsid": 2372,
      "02": 2373,
      "ĠBook": 2374,
      "ades": 2375,
      "Ġsex": 2376,
      "ords": 2377,
      "Ġcompet": 2378,
      "ĠSpain": 2379,
      "ĠKh": 2380,
      "Com": 2381,
      "Ġsom": 2382,
      "Ġmilitary": 2383,
      "oo": 2384,
      "Ġposs": 2385,
      "ued": 2386,
      "olf": 2387,
      "Ġchanged": 2388,
      "now": 2389,
      "ops": 2390,
      "vered": 2391,
      "roy": 2392,
      "98": 2393,
      "Ġaway": 2394,
      "iber": 2395,
      "Ġmount": 2396,
      "odes": 2397,
      "ump": 2398,
      "ivis": 2399,
      "ison": 2400,
      "Ġothers": 2401,
      "Ġ50": 2402,
      "Ġworks": 2403,
      "ĠMet": 2404,
      "Ġhistor": 2405,
      "Ġpoint": 2406,
      "Ġav": 2407,
      "Ġgot": 2408,
      "ified": 2409,
      "med": 2410,
      "Ġisland": 2411,
      "ged": 2412,
      "ests": 2413,
      "Ġcor": 2414,
      "ground": 2415,
      "ĠScot": 2416,
      "ĠLab": 2417,
      "osaur": 2418,
      "gypt": 2419,
      "go": 2420,
      "ĠMusic": 2421,
      "Ġne": 2422,
      "udd": 2423,
      "ĠMad": 2424,
      "ording": 2425,
      "ĠFrank": 2426,
      "Ġdescrib": 2427,
      "Ġdepartment": 2428,
      "Ġindepend": 2429,
      "Ġpoet": 2430,
      "ĠSam": 2431,
      "ĠPeter": 2432,
      "Ġpaint": 2433,
      "Ġ1986": 2434,
      "Ġcomes": 2435,
      "Ġcomputer": 2436,
      "ournal": 2437,
      "HL": 2438,
      "gin": 2439,
      "ki": 2440,
      "ival": 2441,
      "Ġpat": 2442,
      "ĠVir": 2443,
      "League": 2444,
      "1996": 2445,
      "Ġdisco": 2446,
      "Ġ1960": 2447,
      "97": 2448,
      "ele": 2449,
      "Ġfem": 2450,
      "rael": 2451,
      "pisode": 2452,
      "ville": 2453,
      "orts": 2454,
      "icago": 2455,
      "Ġant": 2456,
      "Ġgeneral": 2457,
      "por": 2458,
      "Ġled": 2459,
      "Ġenergy": 2460,
      "Ġcal": 2461,
      "Ġ1988": 2462,
      "acy": 2463,
      "shire": 2464,
      "ĠIr": 2465,
      "Ġfind": 2466,
      "96": 2467,
      "Ġknow": 2468,
      "ĠBas": 2469,
      "Ġele": 2470,
      "Ġriver": 2471,
      "oz": 2472,
      "cean": 2473,
      "Ġareas": 2474,
      "eum": 2475,
      "Ġevent": 2476,
      "Ġstudy": 2477,
      "xt": 2478,
      "Ġet": 2479,
      "Ã³n": 2480,
      "ĠEr": 2481,
      "appen": 2482,
      "Ġblack": 2483,
      "me": 2484,
      "Ġfun": 2485,
      "Ġexper": 2486,
      "ĠAg": 2487,
      "ĠBill": 2488,
      "Ġsymb": 2489,
      "Ġlanguages": 2490,
      "Ġdistrict": 2491,
      "ĠMer": 2492,
      "ĠCast": 2493,
      "Ġoriginal": 2494,
      "ĠMount": 2495,
      "ociation": 2496,
      "Ġpolitical": 2497,
      "Ġ|}": 2498,
      "left": 2499,
      "Ġleader": 2500,
      "ograph": 2501,
      "ards": 2502,
      "Ġmother": 2503,
      "Ġwin": 2504,
      "cis": 2505,
      "Ġrece": 2506,
      "Ġfounded": 2507,
      "iqu": 2508,
      "ĠBattle": 2509,
      "Ġplaces": 2510,
      "ĠÃ": 2511,
      "Ġpublished": 2512,
      "ĠAnt": 2513,
      "1990": 2514,
      "Ġthink": 2515,
      "Ġ[": 2516,
      "ĠAwards": 2517,
      "Ġ1950": 2518,
      "vert": 2519,
      "ront": 2520,
      "ĠDes": 2521,
      "aper": 2522,
      "Ġbeh": 2523,
      "ĠMary": 2524,
      "'t": 2525,
      "Ġbusiness": 2526,
      "ĠDo": 2527,
      "ĠWashington": 2528,
      "ware": 2529,
      "ĠChe": 2530,
      "ĠSant": 2531,
      "Ġdi": 2532,
      "85": 2533,
      "Ġcompany": 2534,
      "org": 2535,
      "ĠMac": 2536,
      "Ġcome": 2537,
      "epar": 2538,
      "itional": 2539,
      "umbers": 2540,
      "urb": 2541,
      "olit": 2542,
      "cul": 2543,
      "ming": 2544,
      "ecut": 2545,
      "acters": 2546,
      "65": 2547,
      "ĠEgypt": 2548,
      "Ġuses": 2549,
      "Ġengine": 2550,
      "field": 2551,
      "ato": 2552,
      "Ġphilosop": 2553,
      "asons": 2554,
      "Ġeffect": 2555,
      "Ġobject": 2556,
      "Ġ1987": 2557,
      "ote": 2558,
      "ĠRussia": 2559,
      "reed": 2560,
      "flu": 2561,
      "aff": 2562,
      "ĠGen": 2563,
      "Ġhappen": 2564,
      "1995": 2565,
      "urs": 2566,
      "ĠTurk": 2567,
      "ĠWW": 2568,
      "ĠConf": 2569,
      "Ġ1984": 2570,
      "ĠUEFA": 2571,
      "Ġstruct": 2572,
      "ĠSchool": 2573,
      "ĠMic": 2574,
      "Ġdel": 2575,
      "Ġ1982": 2576,
      "ĠIII": 2577,
      "Ġtypes": 2578,
      "ided": 2579,
      "Ġ1976": 2580,
      "etic": 2581,
      "Ġmass": 2582,
      "Ġ1979": 2583,
      "New": 2584,
      "Ġel": 2585,
      "ĠArab": 2586,
      "ĠTom": 2587,
      "Ġorigin": 2588,
      "ĠWith": 2589,
      "Ġlearn": 2590,
      "Ġ1985": 2591,
      "ĠGreen": 2592,
      "Ġdisc": 2593,
      "rd": 2594,
      "yl": 2595,
      "ĠThat": 2596,
      "iles": 2597,
      "Ġice": 2598,
      "reland": 2599,
      "Ġaut": 2600,
      "Ġformed": 2601,
      "cle": 2602,
      "Ġdet": 2603,
      "alls": 2604,
      "ĠArch": 2605,
      "ĠThomas": 2606,
      "Ġfire": 2607,
      "Ġhouse": 2608,
      "ĠHigh": 2609,
      "Ġscience": 2610,
      "ya": 2611,
      "Ġtoo": 2612,
      "ript": 2613,
      "Ġauthor": 2614,
      "like": 2615,
      "ither": 2616,
      "Ġalbums": 2617,
      "ĠParis": 2618,
      "rie": 2619,
      "Ġplants": 2620,
      "wood": 2621,
      "Ġcaused": 2622,
      "ĠTer": 2623,
      "etwork": 2624,
      "87": 2625,
      "Ġ1975": 2626,
      "Ġnov": 2627,
      "Ġ:": 2628,
      "Ġtri": 2629,
      "ĠRoyal": 2630,
      "Åį": 2631,
      "Ġdam": 2632,
      "ĠIm": 2633,
      "Ġ1981": 2634,
      "Ġwrest": 2635,
      "Ġkeep": 2636,
      "Ġdeb": 2637,
      "Ġcamp": 2638,
      "verage": 2639,
      "ĠInter": 2640,
      "ĠWil": 2641,
      "itch": 2642,
      "Ġmarried": 2643,
      "Ġwhite": 2644,
      "ĠSol": 2645,
      "ĠChicago": 2646,
      "Ġstar": 2647,
      "ĠCentral": 2648,
      "za": 2649,
      "English": 2650,
      "ĠIreland": 2651,
      "86": 2652,
      "ĠAcc": 2653,
      "Ġeas": 2654,
      "ĠSat": 2655,
      "ores": 2656,
      "Serie": 2657,
      "ĠScotland": 2658,
      "Ġpiec": 2659,
      "92": 2660,
      "Ġship": 2661,
      "cher": 2662,
      "Ġtemper": 2663,
      "ĠLos": 2664,
      "Ġmathemat": 2665,
      "Ġprotect": 2666,
      "ething": 2667,
      "Ġdise": 2668,
      "Ġwinn": 2669,
      "tain": 2670,
      "ĠAfrican": 2671,
      "ĠIsrael": 2672,
      "Ġsepar": 2673,
      "ĠTor": 2674,
      "ights": 2675,
      "Ġprom": 2676,
      "Ġprofessional": 2677,
      "Ġvill": 2678,
      "Ġtechn": 2679,
      "icle": 2680,
      "ĠAtlant": 2681,
      "Ġ1974": 2682,
      "Ġproducer": 2683,
      "ransp": 2684,
      "Cl": 2685,
      "pec": 2686,
      "ds": 2687,
      "ators": 2688,
      "ĠClass": 2689,
      "Ġmove": 2690,
      "Ġconf": 2691,
      "ĠWestern": 2692,
      "Ġbuilding": 2693,
      "Ã¤": 2694,
      "hi": 2695,
      "reet": 2696,
      "ĠDutch": 2697,
      "ological": 2698,
      "atic": 2699,
      "Ġstyle": 2700,
      "Ġoffic": 2701,
      "cel": 2702,
      "vers": 2703,
      "Ġmostly": 2704,
      "less": 2705,
      "Ġfact": 2706,
      "Ġinformation": 2707,
      "bon": 2708,
      "ĠHon": 2709,
      "Ġnon": 2710,
      "Ġwanted": 2711,
      "ĠRock": 2712,
      "Ġhost": 2713,
      "Ġresult": 2714,
      "board": 2715,
      "ĠCop": 2716,
      "aterial": 2717,
      "Ġhold": 2718,
      "ints": 2719,
      "ĠDan": 2720,
      "ĠStadium": 2721,
      "self": 2722,
      "Ġhalf": 2723,
      "Ġgave": 2724,
      "ictor": 2725,
      "ills": 2726,
      "Ġyoung": 2727,
      "Ġ1972": 2728,
      "century": 2729,
      "Ġrole": 2730,
      "ĠQueen": 2731,
      "ender": 2732,
      "Ġconnect": 2733,
      "forman": 2734,
      "88": 2735,
      "Ġsqu": 2736,
      "ĠCollege": 2737,
      "Ġthough": 2738,
      "Ġ$": 2739,
      "ĠDep": 2740,
      "ĠWhite": 2741,
      "ils": 2742,
      "ĠStud": 2743,
      "Ġfree": 2744,
      "1994": 2745,
      "Ġtitle": 2746,
      "ĠOl": 2747,
      "Ġpain": 2748,
      "ĠSun": 2749,
      "ched": 2750,
      "nown": 2751,
      "ĠVol": 2752,
      "ination": 2753,
      "minist": 2754,
      "ĠUK": 2755,
      "Ġ1983": 2756,
      "55": 2757,
      "ĠÐ": 2758,
      "Ġnatural": 2759,
      "stand": 2760,
      "ket": 2761,
      "ĠCatholic": 2762,
      "ha": 2763,
      "Ġcirc": 2764,
      "Ġdue": 2765,
      "66": 2766,
      "Ġinternational": 2767,
      "Ġ1945": 2768,
      "rad": 2769,
      "ictures": 2770,
      "94": 2771,
      "ĠCarl": 2772,
      "ĠBecause": 2773,
      "oma": 2774,
      "Ġdone": 2775,
      "eck": 2776,
      "ĠMiss": 2777,
      "ras": 2778,
      "Ġ1978": 2779,
      "ĠRetrieved": 2780,
      "ĠRh": 2781,
      "Ġlost": 2782,
      "Ġnumbers": 2783,
      "Ġphot": 2784,
      "ĠAngeles": 2785,
      "aud": 2786,
      "Ġtaken": 2787,
      "Ġcharacters": 2788,
      "Ġfield": 2789,
      "Ġlate": 2790,
      "Ġ1973": 2791,
      "Ġviol": 2792,
      "Ġstorm": 2793,
      "elling": 2794,
      "Ġeast": 2795,
      "Ġmeaning": 2796,
      "Ġkey": 2797,
      "Ġworked": 2798,
      "ĠRob": 2799,
      "Ġtour": 2800,
      "Ġeat": 2801,
      "ĠFrancis": 2802,
      "ĠBay": 2803,
      "Ġmetal": 2804,
      "ĠDeath": 2805,
      "Ġstation": 2806,
      "ĠCont": 2807,
      "Ġsea": 2808,
      "ĠDistrict": 2809,
      "ĠCap": 2810,
      "Ġtre": 2811,
      "ended": 2812,
      "Ġblood": 2813,
      "yr": 2814,
      "Ġ1968": 2815,
      "93": 2816,
      "wh": 2817,
      "0000": 2818,
      "lection": 2819,
      "Ġlow": 2820,
      "val": 2821,
      "Ġins": 2822,
      "SA": 2823,
      "uz": 2824,
      "People": 2825,
      "esl": 2826,
      "ression": 2827,
      "NA": 2828,
      "hest": 2829,
      "ros": 2830,
      "Ġmult": 2831,
      "Ġinflu": 2832,
      "ĠSo": 2833,
      "ĠMexico": 2834,
      "ĠDev": 2835,
      "Ġdev": 2836,
      "ĠFer": 2837,
      "lor": 2838,
      "Ġbrother": 2839,
      "aining": 2840,
      "Ġbetter": 2841,
      "Ġnever": 2842,
      "Ġjoined": 2843,
      "oph": 2844,
      "Sp": 2845,
      "Ġmeas": 2846,
      "ĠCarol": 2847,
      "ĠCouncil": 2848,
      "Ġmaterial": 2849,
      "Ġ1977": 2850,
      "Ġalmost": 2851,
      "Ġincludes": 2852,
      "Ġ1971": 2853,
      "91": 2854,
      "ĠFilm": 2855,
      "ĠNob": 2856,
      "Ġsomething": 2857,
      "Ġtoday": 2858,
      "ĠPortug": 2859,
      "ĠTex": 2860,
      "ports": 2861,
      "ait": 2862,
      "Ġfar": 2863,
      "Ġlocal": 2864,
      "ĠPet": 2865,
      "utes": 2866,
      "Ġamount": 2867,
      "Ġsite": 2868,
      "ĠSen": 2869,
      "aker": 2870,
      "ĠGeneral": 2871,
      "ĠSea": 2872,
      "Ġpp": 2873,
      "ogn": 2874,
      "âĢĵâĢĵ": 2875,
      "Ġalways": 2876,
      "aim": 2877,
      "ering": 2878,
      "aps": 2879,
      "arliam": 2880,
      "Ġsett": 2881,
      "itzer": 2882,
      "76": 2883,
      "Ġcop": 2884,
      "ĠLife": 2885,
      "ults": 2886,
      "ĠProv": 2887,
      "ĠArgent": 2888,
      "ĠPo": 2889,
      "ĠPrince": 2890,
      "pecially": 2891,
      "ota": 2892,
      "Ġlet": 2893,
      "Ġelectric": 2894,
      "Ġtro": 2895,
      "Ġproblems": 2896,
      "Ġ1969": 2897,
      "ĠEdward": 2898,
      "Ġwithin": 2899,
      "Ġdeveloped": 2900,
      "ady": 2901,
      "Ġtreat": 2902,
      "Ġgive": 2903,
      "agon": 2904,
      "Ġrefer": 2905,
      "Ġgoal": 2906,
      "owers": 2907,
      "Ġast": 2908,
      "ounced": 2909,
      "ĠCamp": 2910,
      "Ġnames": 2911,
      "Ġplant": 2912,
      "Ġmight": 2913,
      "ĠOb": 2914,
      "ca": 2915,
      "78": 2916,
      "died": 2917,
      "Ġhaving": 2918,
      "uan": 2919,
      "ĠMag": 2920,
      "ister": 2921,
      "ror": 2922,
      "rich": 2923,
      "ala": 2924,
      "iano": 2925,
      "Ġarms": 2926,
      "ĠStar": 2927,
      "Ġtakes": 2928,
      "ola": 2929,
      "ached": 2930,
      "emocrat": 2931,
      "eh": 2932,
      "Sc": 2933,
      "Ġcertain": 2934,
      "ĠLin": 2935,
      "ĠFlorida": 2936,
      "2011": 2937,
      "Ġsurv": 2938,
      "Ġplays": 2939,
      "face": 2940,
      "ima": 2941,
      "ughter": 2942,
      "ĠMass": 2943,
      "Ġcrit": 2944,
      "Ġconst": 2945,
      "ita": 2946,
      "eball": 2947,
      "ominated": 2948,
      "ellow": 2949,
      "known": 2950,
      "Ġwife": 2951,
      "ĠTV": 2952,
      "ĠMr": 2953,
      "Ġcoast": 2954,
      "uts": 2955,
      "Ġspace": 2956,
      "Ġsocial": 2957,
      "ped": 2958,
      "Ġplaying": 2959,
      "Footballers": 2960,
      "ĠIslam": 2961,
      "Ġ1967": 2962,
      "ĠGovernor": 2963,
      "ĠHam": 2964,
      "arliament": 2965,
      "Ġincre": 2966,
      "ĠTown": 2967,
      "Ġpres": 2968,
      "Ġnorm": 2969,
      "ĠBir": 2970,
      "ĠDel": 2971,
      "anger": 2972,
      "ĠDen": 2973,
      "stein": 2974,
      "ĠJer": 2975,
      "Ġsour": 2976,
      "ique": 2977,
      "Ġconsidered": 2978,
      "ĠVirgin": 2979,
      "Ġchanges": 2980,
      "Ġtrib": 2981,
      "Ġsays": 2982,
      "back": 2983,
      "ura": 2984,
      "Ġaverage": 2985,
      "Ġtry": 2986,
      "ĠTwo": 2987,
      "abit": 2988,
      "etherlands": 2989,
      "bur": 2990,
      "Ġterrit": 2991,
      "German": 2992,
      "77": 2993,
      "ĠLatin": 2994,
      "Ġcomb": 2995,
      "Ġ40": 2996,
      "view": 2997,
      "Ġbad": 2998,
      "Ġview": 2999,
      "pe": 3000,
      "ĠPe": 3001,
      "Ġnor": 3002,
      "Ġinvent": 3003,
      "Ġexist": 3004,
      "Ġartist": 3005,
      "Ġforces": 3006,
      "chest": 3007,
      "89": 3008,
      "Sh": 3009,
      "ĠOs": 3010,
      "Ġleast": 3011,
      "National": 3012,
      "Ġposition": 3013,
      "Ġdestroy": 3014,
      "Ġport": 3015,
      "ethod": 3016,
      "ĠFam": 3017,
      "ĠWind": 3018,
      "Ġadv": 3019,
      "Ġsug": 3020,
      "ĠVictor": 3021,
      "Ġinstead": 3022,
      "ado": 3023,
      "ĠCommun": 3024,
      "ĠCat": 3025,
      "Ġincluded": 3026,
      "play": 3027,
      "bor": 3028,
      "Ġ1930": 3029,
      "ately": 3030,
      "aria": 3031,
      "lic": 3032,
      "arian": 3033,
      "ume": 3034,
      "sych": 3035,
      "Ġable": 3036,
      "ĠArmen": 3037,
      "awa": 3038,
      "Ġcannot": 3039,
      "gg": 3040,
      "Ġcell": 3041,
      "br": 3042,
      "Ġinside": 3043,
      "ently": 3044,
      "Ġ35": 3045,
      "ĠBoy": 3046,
      "ibr": 3047,
      "ĠOx": 3048,
      "eds": 3049,
      "ems": 3050,
      "Ġ1964": 3051,
      "Ġmer": 3052,
      "ĠMod": 3053,
      "ĠLiga": 3054,
      "1993": 3055,
      "ua": 3056,
      "Ġcause": 3057,
      "cast": 3058,
      "eld": 3059,
      "Ġrepresent": 3060,
      "ĠBern": 3061,
      "ams": 3062,
      "Ġespecially": 3063,
      "illa": 3064,
      "Ġproduced": 3065,
      "acing": 3066,
      "ĠPrize": 3067,
      "ĠFin": 3068,
      "ĠNotes": 3069,
      "ument": 3070,
      "ends": 3071,
      "Ġintro": 3072,
      "Ġidea": 3073,
      "ĠWeb": 3074,
      "Ġmag": 3075,
      "ĠTheir": 3076,
      "itect": 3077,
      "ĠBritain": 3078,
      "Ġkind": 3079,
      "ĠBi": 3080,
      "Ġindust": 3081,
      "Ġfull": 3082,
      "ada": 3083,
      "ements": 3084,
      "lete": 3085,
      "Ġ1900": 3086,
      "Ġ1940": 3087,
      "ĠArmy": 3088,
      "ĠMartin": 3089,
      "be": 3090,
      "ĠTexas": 3091,
      "Ġtheory": 3092,
      "\")": 3093,
      "ym": 3094,
      "Â²": 3095,
      "Ġjob": 3096,
      "Ġeither": 3097,
      "mph": 3098,
      "och": 3099,
      "rey": 3100,
      "ĠCamb": 3101,
      "ager": 3102,
      "ailway": 3103,
      "ĠPlay": 3104,
      "ĠAcadem": 3105,
      "ĠMov": 3106,
      "ament": 3107,
      "Ġlik": 3108,
      "Ġ()": 3109,
      "win": 3110,
      "Ġlab": 3111,
      "Ġcond": 3112,
      "Ġnuc": 3113,
      "ĠNorthern": 3114,
      "Ġdem": 3115,
      "formance": 3116,
      "Ġchurch": 3117,
      "Ġarmy": 3118,
      "isc": 3119,
      "ĠVer": 3120,
      "ynast": 3121,
      "mar": 3122,
      "Ġwhe": 3123,
      "Ġ1966": 3124,
      "Ġmix": 3125,
      "ĠFeder": 3126,
      "Ġforce": 3127,
      "Ġinvol": 3128,
      "Ġchemical": 3129,
      "ĠOld": 3130,
      "ĠMin": 3131,
      "Ġpress": 3132,
      "Ġancient": 3133,
      ".)": 3134,
      "1992": 3135,
      "ios": 3136,
      "used": 3137,
      "ĠUs": 3138,
      "Ġteams": 3139,
      "Ġmunicipality": 3140,
      "Ġer": 3141,
      "Ġlittle": 3142,
      "icles": 3143,
      "ĠSil": 3144,
      "oming": 3145,
      "ively": 3146,
      "ably": 3147,
      "Ġamong": 3148,
      "www": 3149,
      "center": 3150,
      "ĠBur": 3151,
      "ĠOut": 3152,
      "ruction": 3153,
      "Ġfish": 3154,
      "Ġdata": 3155,
      "gr": 3156,
      "ani": 3157,
      "Ġconc": 3158,
      "ĠEnter": 3159,
      "lected": 3160,
      "ologist": 3161,
      "Ġbirth": 3162,
      "Ġinstrum": 3163,
      "la": 3164,
      "mark": 3165,
      "ning": 3166,
      "150": 3167,
      "67": 3168,
      "ĠKorea": 3169,
      "ersey": 3170,
      "oto": 3171,
      "Ġmodel": 3172,
      "ĠOver": 3173,
      "amples": 3174,
      "Ġsoft": 3175,
      "Ġ1962": 3176,
      "Ġ||": 3177,
      "ransport": 3178,
      "Ġ1965": 3179,
      "asc": 3180,
      "Ġproper": 3181,
      "arg": 3182,
      "CA": 3183,
      "sel": 3184,
      "acher": 3185,
      "Ġacross": 3186,
      "stitution": 3187,
      "ĠJim": 3188,
      "Ġground": 3189,
      "ĠPac": 3190,
      "La": 3191,
      "Ġspeak": 3192,
      "itzerland": 3193,
      "bour": 3194,
      "Ġ1947": 3195,
      "ĠJo": 3196,
      "ending": 3197,
      "Ġdivid": 3198,
      "ĠBob": 3199,
      "ĠMos": 3200,
      "Ġradio": 3201,
      "ĠEarly": 3202,
      "olk": 3203,
      "Ġge": 3204,
      "Ġeduc": 3205,
      "ero": 3206,
      "Ġâ": 3207,
      "Ġgold": 3208,
      "Ġtest": 3209,
      "ĠSecond": 3210,
      "ĠLand": 3211,
      "ĠIrish": 3212,
      "ĠMiddle": 3213,
      "ĠOtt": 3214,
      "Ġimp": 3215,
      "1980": 3216,
      "ĠMel": 3217,
      "ĠPope": 3218,
      "lished": 3219,
      "Ġten": 3220,
      "Ġ1961": 3221,
      "ĠGeorg": 3222,
      "Ġpost": 3223,
      "ĠNetherlands": 3224,
      "ĠSince": 3225,
      "Ġlim": 3226,
      "83": 3227,
      "Ġenough": 3228,
      "Ġ1951": 3229,
      "ĠCenter": 3230,
      "ying": 3231,
      "ĠDuke": 3232,
      "ĠCons": 3233,
      "Ġcounty": 3234,
      "ency": 3235,
      "Ġfinal": 3236,
      "ĠTod": 3237,
      "real": 3238,
      "Ġmot": 3239,
      "ĠWrest": 3240,
      "Ġ2021": 3241,
      "Ġabove": 3242,
      "Ġi": 3243,
      "Ġwoman": 3244,
      "Ġstri": 3245,
      "Ġriv": 3246,
      "Ġnovel": 3247,
      "ĠTri": 3248,
      "Ġrequ": 3249,
      "ĠStan": 3250,
      "uit": 3251,
      "Ġclose": 3252,
      "ĠTim": 3253,
      "abeth": 3254,
      "Ġoutside": 3255,
      "Hex": 3256,
      "Ġpast": 3257,
      "ella": 3258,
      "ĠUnder": 3259,
      "Ġended": 3260,
      "yo": 3261,
      "120": 3262,
      "ĠAlb": 3263,
      "RGB": 3264,
      "Ġcapt": 3265,
      "Ġcivil": 3266,
      "Ġhelped": 3267,
      "ĠBo": 3268,
      "ĠStev": 3269,
      "Ġcenter": 3270,
      "Ġtropical": 3271,
      "ĠLove": 3272,
      "ĠAtlantic": 3273,
      "Ġhimself": 3274,
      "ĠAp": 3275,
      "Ġpe": 3276,
      "ads": 3277,
      "Ġ1944": 3278,
      "Ġhot": 3279,
      "Ġsystems": 3280,
      "Ġappro": 3281,
      "ĠLater": 3282,
      "ĠFred": 3283,
      "Ġearth": 3284,
      "Ġhockey": 3285,
      "ĠAnn": 3286,
      "viron": 3287,
      "rel": 3288,
      "ĠNaz": 3289,
      "ĠMusl": 3290,
      "ĠLaw": 3291,
      "Ġ1948": 3292,
      "ĠMa": 3293,
      "Ġprop": 3294,
      "fecture": 3295,
      "ĠJoseph": 3296,
      "ÅŁ": 3297,
      "ĠJes": 3298,
      "vious": 3299,
      "56": 3300,
      "Ġcells": 3301,
      "ĠLake": 3302,
      "undesl": 3303,
      "Ġlevel": 3304,
      "ĠKn": 3305,
      "ĠTime": 3306,
      "ĠWales": 3307,
      "Ġworking": 3308,
      "Ġunivers": 3309,
      "Ġwriting": 3310,
      "ĠMark": 3311,
      "Mar": 3312,
      "Ġ1963": 3313,
      "ĠPan": 3314,
      "emocratic": 3315,
      "ĠIran": 3316,
      "Ġculture": 3317,
      "72": 3318,
      "eated": 3319,
      "ranch": 3320,
      "undesliga": 3321,
      "aries": 3322,
      "Ġkilling": 3323,
      "ĠWin": 3324,
      "aine": 3325,
      "ĠMario": 3326,
      "Ġevents": 3327,
      "ĠCong": 3328,
      "etro": 3329,
      "82": 3330,
      "Ġ1942": 3331,
      "Ġsmaller": 3332,
      "can": 3333,
      "Ġpossible": 3334,
      "Ġdisease": 3335,
      "ĠHung": 3336,
      "iff": 3337,
      "Ġgoes": 3338,
      "ĠEc": 3339,
      "Ġonce": 3340,
      "ĠAz": 3341,
      "ube": 3342,
      "Ġshown": 3343,
      "Ġfemale": 3344,
      "Ġproduct": 3345,
      "Ġbuildings": 3346,
      "Ġmanager": 3347,
      "ĠLeg": 3348,
      "ĠSwitzerland": 3349,
      "Japan": 3350,
      "oston": 3351,
      "ĠIll": 3352,
      "uman": 3353,
      "ĠBrazilian": 3354,
      "Ġ1946": 3355,
      "ĠSur": 3356,
      "ĠFriend": 3357,
      "ĠWWE": 3358,
      "Ġearl": 3359,
      "Ġhon": 3360,
      "ĠAustria": 3361,
      "Ġheart": 3362,
      "Ġlonger": 3363,
      "ĠLuc": 3364,
      "Ġparty": 3365,
      "ĠJean": 3366,
      "Ġ1901": 3367,
      "Ġ1920": 3368,
      "Ġbands": 3369,
      "ĠHaw": 3370,
      "Ġsize": 3371,
      "Ġiss": 3372,
      "FC": 3373,
      "Ġill": 3374,
      "ĠGall": 3375,
      "Ġsuccessful": 3376,
      "ctors": 3377,
      "onn": 3378,
      "ĠRos": 3379,
      "atter": 3380,
      "onic": 3381,
      "Ġservice": 3382,
      "Ġhumans": 3383,
      "Äģ": 3384,
      "ĠSmith": 3385,
      "Ġhighest": 3386,
      "84": 3387,
      "Ġtransl": 3388,
      "ternet": 3389,
      "Ġox": 3390,
      "ĠRome": 3391,
      "ynasty": 3392,
      "Ġbar": 3393,
      "omer": 3394,
      "oted": 3395,
      "Ġgas": 3396,
      "Ġquick": 3397,
      "Ġelected": 3398,
      "ĠBig": 3399,
      "ais": 3400,
      "eff": 3401,
      "Ġpract": 3402,
      "Ġcomplet": 3403,
      "Ġfig": 3404,
      "ĠMuseum": 3405,
      "ĠAssociation": 3406,
      "Ġrelations": 3407,
      "heim": 3408,
      "Ġjournal": 3409,
      "den": 3410,
      "ulf": 3411,
      "For": 3412,
      "ands": 3413,
      "Ġideas": 3414,
      "Ġallowed": 3415,
      "nam": 3416,
      "ĠUr": 3417,
      "ĠIslands": 3418,
      "Ġ1958": 3419,
      "West": 3420,
      "ĠAv": 3421,
      "Ġforms": 3422,
      "ĠDisney": 3423,
      "ĠCam": 3424,
      "Ġhapp": 3425,
      "itive": 3426,
      "71": 3427,
      "bit": 3428,
      "2012": 3429,
      "ects": 3430,
      "2014": 3431,
      "Ġtalk": 3432,
      "thing": 3433,
      "Ġprison": 3434,
      "Ġsouthern": 3435,
      "ĠOxford": 3436,
      "lar": 3437,
      "azz": 3438,
      "ĠGal": 3439,
      "ength": 3440,
      "ĠSir": 3441,
      "ĠZeal": 3442,
      "Ġ1949": 3443,
      "ĠRom": 3444,
      "Ġey": 3445,
      "ĠUSA": 3446,
      "Ġvarious": 3447,
      "Ġdaughter": 3448,
      "Ġphilosopher": 3449,
      "ĠBerlin": 3450,
      "Ġ1941": 3451,
      "ĠAcademy": 3452,
      "Ġbelieve": 3453,
      "Ġder": 3454,
      "81": 3455,
      "Ġnorthern": 3456,
      "Ġways": 3457,
      "uted": 3458,
      "ĠCro": 3459,
      "Ġfail": 3460,
      "Ġaward": 3461,
      "ĠZealand": 3462,
      "Ġcommune": 3463,
      "64": 3464,
      "ĠNobel": 3465,
      "ray": 3466,
      "heast": 3467,
      "ift": 3468,
      "Ġ60": 3469,
      "ias": 3470,
      "ĠNHL": 3471,
      "iger": 3472,
      "Ġ1956": 3473,
      "ette": 3474,
      "ividual": 3475,
      "reg": 3476,
      "Ġever": 3477,
      "Ġrain": 3478,
      "Ġdead": 3479,
      "1991": 3480,
      "Ġbomb": 3481,
      "otes": 3482,
      "Ã¼r": 3483,
      "ĠOk": 3484,
      "Ġpen": 3485,
      "ĠTour": 3486,
      "Ġhealth": 3487,
      "chester": 3488,
      "Ġask": 3489,
      "ketball": 3490,
      "Ġmovement": 3491,
      "73": 3492,
      "orial": 3493,
      "Ġhurricane": 3494,
      "ĠPremier": 3495,
      "Ġrule": 3496,
      "anies": 3497,
      "oor": 3498,
      "Ġpri": 3499,
      "Ġ(\"": 3500,
      "aka": 3501,
      "ĠOlympics": 3502,
      "burgh": 3503,
      "htt": 3504,
      "Ġhit": 3505,
      "Ġ2022": 3506,
      "Ġ1957": 3507,
      "ih": 3508,
      "Ġblue": 3509,
      "ality": 3510,
      "Ġcross": 3511,
      "las": 3512,
      "ĠSecret": 3513,
      "Ġstay": 3514,
      "74": 3515,
      "Ġtemperature": 3516,
      "ĠHel": 3517,
      "Ġcat": 3518,
      "ĠBor": 3519,
      "Ġmethod": 3520,
      "Ġrad": 3521,
      "Ġ80": 3522,
      "Ġtravel": 3523,
      "Mov": 3524,
      "Ġbreak": 3525,
      ",\"": 3526,
      "Ġmonths": 3527,
      "min": 3528,
      "Ã§": 3529,
      "utt": 3530,
      "Ġstage": 3531,
      "oat": 3532,
      "Ġident": 3533,
      "lv": 3534,
      "ply": 3535,
      "Ġnetwork": 3536,
      "endo": 3537,
      "Ġball": 3538,
      "Ġnight": 3539,
      "ires": 3540,
      "ĠColumb": 3541,
      "ĠHot": 3542,
      "ipl": 3543,
      "vironment": 3544,
      "ĠSwedish": 3545,
      "craft": 3546,
      "Ġ1939": 3547,
      "cycl": 3548,
      "Ġsomeone": 3549,
      "ydro": 3550,
      "Ġmid": 3551,
      "zech": 3552,
      "ĠForm": 3553,
      "Ġreact": 3554,
      "Ġvon": 3555,
      "Ġ1936": 3556,
      "ĠLi": 3557,
      "Ġ1933": 3558,
      "Ġpay": 3559,
      "ĠGar": 3560,
      "tainment": 3561,
      "oke": 3562,
      "Ġexecut": 3563,
      "Ġrights": 3564,
      "Ġarchitect": 3565,
      "tr": 3566,
      "ĠEastern": 3567,
      "ĠGolden": 3568,
      "Ġwind": 3569,
      "ĠAlbum": 3570,
      "Ġmeet": 3571,
      "uild": 3572,
      "Ġlo": 3573,
      "umn": 3574,
      "Ġ1952": 3575,
      "Ġdig": 3576,
      "ricts": 3577,
      "ece": 3578,
      "Ġap": 3579,
      "Ġmach": 3580,
      "Ġreport": 3581,
      "inger": 3582,
      "ĠPers": 3583,
      "Ġestablished": 3584,
      "ĠAre": 3585,
      "ĠPolish": 3586,
      "upt": 3587,
      "ĠCarolina": 3588,
      "ection": 3589,
      "Ã¢": 3590,
      "Ã£": 3591,
      "ĠGoals": 3592,
      "Ġwid": 3593,
      "ĠDou": 3594,
      "ĠKorean": 3595,
      "well": 3596,
      "Ġsymbol": 3597,
      "2013": 3598,
      "ennis": 3599,
      "Ġastron": 3600,
      "Ġcast": 3601,
      "ĠKar": 3602,
      "Ġ1959": 3603,
      "ĠRecords": 3604,
      "Bl": 3605,
      "urder": 3606,
      "ĠSystem": 3607,
      "Ġpage": 3608,
      "Ġscreen": 3609,
      "ĠEuro": 3610,
      "ĠLord": 3611,
      "idence": 3612,
      "Ġprob": 3613,
      "aches": 3614,
      "Ġdivided": 3615,
      "US": 3616,
      "sen": 3617,
      "orse": 3618,
      "Ġinterest": 3619,
      "Ġgoing": 3620,
      "ĠLee": 3621,
      "ampion": 3622,
      "oid": 3623,
      "ĠSeason": 3624,
      "ãĥ": 3625,
      "urp": 3626,
      "iana": 3627,
      "ĠProt": 3628,
      "ĠConst": 3629,
      "Ġreligious": 3630,
      "Ġfront": 3631,
      "53": 3632,
      "1989": 3633,
      "Ġdrug": 3634,
      "ĠCareer": 3635,
      "ĠBoston": 3636,
      "Ġfre": 3637,
      "ĠHind": 3638,
      "Ġang": 3639,
      "icture": 3640,
      "Ġdefeat": 3641,
      "time": 3642,
      "ĠPoland": 3643,
      "adel": 3644,
      "Ġbelieved": 3645,
      "Ġcreat": 3646,
      "iy": 3647,
      "Ġinh": 3648,
      "Ð°": 3649,
      "68": 3650,
      "ĠSociety": 3651,
      "ĠJackson": 3652,
      "icult": 3653,
      "ĠBul": 3654,
      "Ġ1929": 3655,
      "Ġsurface": 3656,
      "Ġopened": 3657,
      "ĠJesus": 3658,
      "Ġreceived": 3659,
      "ĠVirginia": 3660,
      "selves": 3661,
      "Ġbattle": 3662,
      "Ġrelease": 3663,
      "Ġmainly": 3664,
      "ensus": 3665,
      "Ġmusical": 3666,
      "Ġthemselves": 3667,
      "krain": 3668,
      "Ġwood": 3669,
      "efore": 3670,
      "Ġ1943": 3671,
      "ĠHill": 3672,
      "Ġrecogn": 3673,
      "Ġlives": 3674,
      "63": 3675,
      "ĠLu": 3676,
      "Ġclimate": 3677,
      "Ġ1925": 3678,
      "ĠTok": 3679,
      "cyclop": 3680,
      "ĠWal": 3681,
      "iple": 3682,
      "Ġ1934": 3683,
      "Ġ1938": 3684,
      "cest": 3685,
      "ask": 3686,
      "ĠOcean": 3687,
      "ailable": 3688,
      "Ġpainter": 3689,
      "Äĥ": 3690,
      "anda": 3691,
      "ention": 3692,
      "atory": 3693,
      "elly": 3694,
      "Ġliter": 3695,
      "Ġ1926": 3696,
      "song": 3697,
      "imb": 3698,
      "Ġclos": 3699,
      "57": 3700,
      "eland": 3701,
      "ĠJersey": 3702,
      "intendo": 3703,
      "Ġelection": 3704,
      "aged": 3705,
      "Ġsports": 3706,
      "Ġdevelopment": 3707,
      "TA": 3708,
      "Ġvoc": 3709,
      "duced": 3710,
      "ĠPacific": 3711,
      "Ġinf": 3712,
      "state": 3713,
      "ĠGames": 3714,
      "ĠAlso": 3715,
      "Ġserved": 3716,
      "Brit": 3717,
      "Ġcase": 3718,
      "Ġfall": 3719,
      "Ġcele": 3720,
      "ĠBBC": 3721,
      "ensive": 3722,
      "Ġpolice": 3723,
      "band": 3724,
      "Ġdecided": 3725,
      "ĠEntertainment": 3726,
      "Ġsil": 3727,
      "Ġspeed": 3728,
      "Ġ1955": 3729,
      "lav": 3730,
      "ĠMax": 3731,
      "Ġseven": 3732,
      "Ġlower": 3733,
      "Ġbeginning": 3734,
      "54": 3735,
      "orf": 3736,
      "icine": 3737,
      "Ġcentral": 3738,
      "ĠSeries": 3739,
      "Fran": 3740,
      "Ã´": 3741,
      "ĠBrown": 3742,
      "Ġlaws": 3743,
      "Ġ*": 3744,
      "ĠGroup": 3745,
      "ĠVen": 3746,
      "Ġbr": 3747,
      "Ġ1932": 3748,
      "itiz": 3749,
      "chestra": 3750,
      "ĠSong": 3751,
      "aby": 3752,
      "Ġ1954": 3753,
      "ĠSummer": 3754,
      "Ġ1928": 3755,
      "Ġ1953": 3756,
      "Ġoffice": 3757,
      "ĠMat": 3758,
      "Ġdistrib": 3759,
      "ira": 3760,
      "Ġdiscovered": 3761,
      "uy": 3762,
      "ĠSax": 3763,
      "raph": 3764,
      "ĠSweden": 3765,
      "uge": 3766,
      "head": 3767,
      "Ġpos": 3768,
      "Ġprim": 3769,
      "Ġadded": 3770,
      "52": 3771,
      "Ġwinners": 3772,
      "iÃ³n": 3773,
      "ĠAlexander": 3774,
      "ĠJust": 3775,
      "1988": 3776,
      "ĠAbout": 3777,
      "Ġfriends": 3778,
      "ĠNations": 3779,
      "Ġproject": 3780,
      "Ġvillage": 3781,
      "war": 3782,
      "United": 3783,
      "ĠTotal": 3784,
      "ĠOf": 3785,
      "Ġbegins": 3786,
      "Ġtra": 3787,
      "Ġgreen": 3788,
      "ĠAnother": 3789,
      "ounds": 3790,
      "Ġperformed": 3791,
      "aven": 3792,
      "oved": 3793,
      "anton": 3794,
      "rama": 3795,
      "Ġrelated": 3796,
      "Ġrecorded": 3797,
      "arts": 3798,
      "da": 3799,
      "ĠTrans": 3800,
      "TV": 3801,
      "Ġdate": 3802,
      "Ġcard": 3803,
      "Ġround": 3804,
      "ĠHarry": 3805,
      "Fl": 3806,
      "ĠMu": 3807,
      "onent": 3808,
      "51": 3809,
      "61": 3810,
      "ĠMot": 3811,
      "Ġmiles": 3812,
      "Ġreplaced": 3813,
      "Ġbiggest": 3814,
      "Can": 3815,
      "Se": 3816,
      "vin": 3817,
      "orer": 3818,
      "1987": 3819,
      "ĠWood": 3820,
      "ĠJac": 3821,
      "ĠAnton": 3822,
      "onto": 3823,
      "ĠAustrian": 3824,
      "incess": 3825,
      "Ġ1918": 3826,
      "Ġepisode": 3827,
      "Ġexcept": 3828,
      "62": 3829,
      "andy": 3830,
      "ĠBru": 3831,
      "anguage": 3832,
      "Ġannounced": 3833,
      "ĠPrefecture": 3834,
      "Ġborder": 3835,
      "uture": 3836,
      "ishop": 3837,
      "rophy": 3838,
      "...": 3839,
      "van": 3840,
      "ĠLine": 3841,
      "Ġvict": 3842,
      "ĠSar": 3843,
      "Ġhowever": 3844,
      "ny": 3845,
      "Ġago": 3846,
      "Ġbaseball": 3847,
      "ĠPenn": 3848,
      "Ġobs": 3849,
      "Ã£o": 3850,
      "rong": 3851,
      "Ġitself": 3852,
      "Ġpoints": 3853,
      "enc": 3854,
      "Ġtried": 3855,
      "Ġgirl": 3856,
      "Ġspread": 3857,
      "ĠMo": 3858,
      "eful": 3859,
      "Ġvir": 3860,
      "oci": 3861,
      "Ġtrack": 3862,
      "Ġappeared": 3863,
      "ĠDire": 3864,
      "Ġprodu": 3865,
      "Ġcoach": 3866,
      "Ġpred": 3867,
      "ĠAlthough": 3868,
      "ĠRevolution": 3869,
      "69": 3870,
      "ii": 3871,
      "urther": 3872,
      "Ġcomedy": 3873,
      "Ġanimal": 3874,
      "Ġ1935": 3875,
      "iki": 3876,
      "âĢĶâĢĶâĢĶ": 3877,
      "Ġ32": 3878,
      "Ġfeel": 3879,
      "Ġ!": 3880,
      "ĠCivil": 3881,
      "ĠBlue": 3882,
      "Ġindependent": 3883,
      "Mus": 3884,
      "atre": 3885,
      "Ġinj": 3886,
      "ĠElect": 3887,
      "enz": 3888,
      "ĠTop": 3889,
      "leg": 3890,
      "Ġeight": 3891,
      "lers": 3892,
      "wan": 3893,
      "ĠSometimes": 3894,
      "ĠPictures": 3895,
      "Ġ1931": 3896,
      "wer": 3897,
      "ĠMem": 3898,
      "ĠNight": 3899,
      "Ġ1924": 3900,
      "Ġgets": 3901,
      "idents": 3902,
      "Ġcle": 3903,
      "Ġmountain": 3904,
      "Ġrules": 3905,
      "Ġtowns": 3906,
      "ĠGreece": 3907,
      "din": 3908,
      "enna": 3909,
      "ĠBad": 3910,
      "ĠBefore": 3911,
      "ĠMah": 3912,
      "1986": 3913,
      "ito": 3914,
      "Ġmem": 3915,
      "inted": 3916,
      "First": 3917,
      "Ġadminist": 3918,
      "ĠSk": 3919,
      "Ġ1927": 3920,
      "Ġreturned": 3921,
      "ba": 3922,
      "ali": 3923,
      "ĠBre": 3924,
      "estival": 3925,
      ");": 3926,
      "mun": 3927,
      "ĠTa": 3928,
      "Ġlove": 3929,
      "ĠEach": 3930,
      "Ġcontinued": 3931,
      "Ġvoice": 3932,
      "Ã©rie": 3933,
      "Ġevolution": 3934,
      "Ġbroad": 3935,
      "Ġ2023": 3936,
      "mir": 3937,
      "angers": 3938,
      "mas": 3939,
      "Ġopera": 3940,
      "enth": 3941,
      "Ġwrite": 3942,
      "rial": 3943,
      "Ġboy": 3944,
      "ĠKenn": 3945,
      "ĠPlayer": 3946,
      "Ġdifficult": 3947,
      "ĠWall": 3948,
      "Ġalthough": 3949,
      "ĠAnim": 3950,
      "ken": 3951,
      "Ġlarger": 3952,
      "reme": 3953,
      "Ġcompetition": 3954,
      "ĠAccording": 3955,
      "obe": 3956,
      "1970": 3957,
      "ĠOlympic": 3958,
      "Ġlog": 3959,
      "Ġsoldiers": 3960,
      "Ġfast": 3961,
      "Ġavailable": 3962,
      "inks": 3963,
      "Aust": 3964,
      "ĠCa": 3965,
      "iny": 3966,
      "itor": 3967,
      "Ġislands": 3968,
      "Ġquickly": 3969,
      "Ġwear": 3970,
      "Ġmagn": 3971,
      "Ġ1937": 3972,
      "Ġmusicians": 3973,
      "eign": 3974,
      "use": 3975,
      "inct": 3976,
      "ĠGh": 3977,
      "ivor": 3978,
      "Ġrace": 3979,
      "ĠStreet": 3980,
      "ĠWhile": 3981,
      "ĠEliz": 3982,
      "ĠToday": 3983,
      "Ġneeded": 3984,
      "79": 3985,
      "Pro": 3986,
      "ez": 3987,
      "Ġbur": 3988,
      "ĠDar": 3989,
      "Ġkinds": 3990,
      "annel": 3991,
      "Ġrange": 3992,
      "Ġbrought": 3993,
      "agan": 3994,
      "Ġtold": 3995,
      "Ġ1922": 3996,
      "180": 3997,
      "ĠNic": 3998,
      "bury": 3999,
      "Ġtree": 4000,
      "Pl": 4001,
      "ĠOrig": 4002,
      "eel": 4003,
      "ID": 4004,
      "ĠLight": 4005,
      "ĠCompany": 4006,
      "Ġaffect": 4007,
      "ĠMontreal": 4008,
      "Cities": 4009,
      "ĠYoung": 4010,
      "De": 4011,
      "also": 4012,
      "oud": 4013,
      "59": 4014,
      "aki": 4015,
      "ansas": 4016,
      "500": 4017,
      "ois": 4018,
      "Ġfarm": 4019,
      "Ġcancer": 4020,
      "with": 4021,
      "anks": 4022,
      "Ġegg": 4023,
      "Ġproduction": 4024,
      "1984": 4025,
      "Ġanimated": 4026,
      "ĠThen": 4027,
      "ĠHurricane": 4028,
      "ĠSpec": 4029,
      "Ġstudents": 4030,
      "Ġsigned": 4031,
      "airs": 4032,
      "azine": 4033,
      "echan": 4034,
      "58": 4035,
      "ĠUkrain": 4036,
      "Ġcolon": 4037,
      "Ġspe": 4038,
      "Ġ1923": 4039,
      "iens": 4040,
      "Ġsuper": 4041,
      "Ġmathematician": 4042,
      "ĠNews": 4043,
      "Ġfeet": 4044,
      "British": 4045,
      "ĠDi": 4046,
      "ĠWork": 4047,
      "à¦": 4048,
      "ĠLittle": 4049,
      "iant": 4050,
      "Ġmiddle": 4051,
      "Ġsoon": 4052,
      "ĠFar": 4053,
      "itted": 4054,
      "amin": 4055,
      "ĠReport": 4056,
      "Ġsit": 4057,
      "ĠHa": 4058,
      "Ġcho": 4059,
      "illy": 4060,
      "ĠBang": 4061,
      "Ġour": 4062,
      "Ġtrue": 4063,
      "Ġleaders": 4064,
      "Ġsch": 4065,
      "Ġdeg": 4066,
      "ador": 4067,
      "thur": 4068,
      "ails": 4069,
      "no": 4070,
      "ĠAlbert": 4071,
      "Ġwhole": 4072,
      "Ġ150": 4073,
      "ĠActor": 4074,
      "Te": 4075,
      "ĠCzech": 4076,
      "Ġoldest": 4077,
      "ĠWilliams": 4078,
      "Ġlaun": 4079,
      "phia": 4080,
      "ĠGame": 4081,
      "etroit": 4082,
      "ĠCub": 4083,
      "Ġdog": 4084,
      "ĠJud": 4085,
      "Ġhigher": 4086,
      "Ġcoll": 4087,
      "ĠStep": 4088,
      "ĠSqu": 4089,
      "ĠFC": 4090,
      "Ġservices": 4091,
      "Ġsquare": 4092,
      "ĠJane": 4093,
      "elled": 4094,
      "Ġaccess": 4095,
      "Ġwestern": 4096,
      "Ġmale": 4097,
      "Ġseasons": 4098,
      "Ġlocated": 4099,
      "onst": 4100,
      "Ġbass": 4101,
      "Movies": 4102,
      "ĠParliament": 4103,
      "pisodes": 4104,
      "urity": 4105,
      "Ġdefeated": 4106,
      "Ġdamage": 4107,
      "Ġtext": 4108,
      "Ġstories": 4109,
      "ips": 4110,
      "itude": 4111,
      "Ġ?": 4112,
      "Ġweap": 4113,
      "onia": 4114,
      "ĠWrestling": 4115,
      "ĠSub": 4116,
      "ĠUl": 4117,
      "Ġbirds": 4118,
      "Ġbox": 4119,
      "atives": 4120,
      "Ġgrad": 4121,
      "Or": 4122,
      "arter": 4123,
      "ĠValley": 4124,
      "Ġreligion": 4125,
      "Ġhol": 4126,
      "2016": 4127,
      "Ġfootballers": 4128,
      "Ġmonth": 4129,
      "Ġprevious": 4130,
      "Ġcreate": 4131,
      "Ġhydro": 4132,
      "Ġ2024": 4133,
      "ĠMain": 4134,
      "ĠFre": 4135,
      "ĠDivis": 4136,
      "1985": 4137,
      "ĠRoad": 4138,
      "ontin": 4139,
      "stitute": 4140,
      "ĠCambridge": 4141,
      "FF": 4142,
      "Ġscore": 4143,
      "Ġweek": 4144,
      "etting": 4145,
      "ĠAppear": 4146,
      "Ġjournalist": 4147,
      "ĠViet": 4148,
      "ulture": 4149,
      "Ġmyth": 4150,
      "Ġbasketball": 4151,
      "sur": 4152,
      "ĠTw": 4153,
      "ential": 4154,
      "ĠWay": 4155,
      "ĠHy": 4156,
      "Ġstars": 4157,
      "Ġcomput": 4158,
      "Ġphysic": 4159,
      "Ġsec": 4160,
      "alia": 4161,
      "Ġmurder": 4162,
      "igan": 4163,
      "Ġtrain": 4164,
      "Ġpot": 4165,
      "ĠGood": 4166,
      "ĠPopul": 4167,
      "Ġfunction": 4168,
      "Ġschools": 4169,
      "ĠPrix": 4170,
      "1983": 4171,
      "adelphia": 4172,
      "oken": 4173,
      "ario": 4174,
      "olitan": 4175,
      "Ġcourt": 4176,
      "ĠApps": 4177,
      "undred": 4178,
      "Ø§": 4179,
      "Ġreb": 4180,
      "Ġheavy": 4181,
      "Ġkil": 4182,
      "Ġcycl": 4183,
      "Ġsn": 4184,
      "2015": 4185,
      "ĠLong": 4186,
      "Ġpsych": 4187,
      "Ġsuff": 4188,
      "Ġunderstand": 4189,
      "Ġproblem": 4190,
      "ĠVictoria": 4191,
      "ĠMatt": 4192,
      "Ġcauses": 4193,
      "Ġsoftware": 4194,
      "Ġren": 4195,
      "Ġcompanies": 4196,
      "aught": 4197,
      "bs": 4198,
      "ĠNap": 4199,
      "ĠTropical": 4200,
      "ĠFire": 4201,
      "istic": 4202,
      "Ġ33": 4203,
      "ĠElizabeth": 4204,
      "Ġgives": 4205,
      "arks": 4206,
      "Col": 4207,
      "ĠBudd": 4208,
      "Ġhous": 4209,
      "ĠChild": 4210,
      "Ġconduct": 4211,
      "ĠCr": 4212,
      "Ġfru": 4213,
      "ĠLar": 4214,
      "Ġqualification": 4215,
      "elle": 4216,
      "istry": 4217,
      "Ġleaves": 4218,
      "ĠAlf": 4219,
      "overs": 4220,
      "gor": 4221,
      "ising": 4222,
      "Ġburn": 4223,
      "Ġdies": 4224,
      "ĠWater": 4225,
      "Ġperformance": 4226,
      "Ġattem": 4227,
      "ibrary": 4228,
      "ving": 4229,
      "ĠCharl": 4230,
      "Ġintroduced": 4231,
      "ĠMir": 4232,
      "uries": 4233,
      "arden": 4234,
      "ĠLeon": 4235,
      "ĠRog": 4236,
      "ĠVan": 4237,
      "ĠOrder": 4238,
      "RA": 4239,
      "Sport": 4240,
      "iller": 4241,
      "Ġdestroyed": 4242,
      "Ġsuggest": 4243,
      "Ġ1919": 4244,
      "idae": 4245,
      "ĠDemocratic": 4246,
      "ĠJr": 4247,
      "Ġcold": 4248,
      "Ġlength": 4249,
      "Ġ1921": 4250,
      "leep": 4251,
      "ĠTem": 4252,
      "ĠServ": 4253,
      "Ġslow": 4254,
      "present": 4255,
      "ĠJews": 4256,
      "oper": 4257,
      "Ġreason": 4258,
      "mond": 4259,
      "ĠCourt": 4260,
      "irit": 4261,
      "1982": 4262,
      "Ġscientists": 4263,
      "sol": 4264,
      "ĠBal": 4265,
      "Ġreached": 4266,
      "Ġimpro": 4267,
      "ĠJewish": 4268,
      "ĠStorm": 4269,
      "Ġunits": 4270,
      "inson": 4271,
      "Ġflag": 4272,
      "Ġcommonly": 4273,
      "Ġclaim": 4274,
      "Ġlines": 4275,
      "aign": 4276,
      "lines": 4277,
      "Ġcrim": 4278,
      "ĠEst": 4279,
      "ĠOh": 4280,
      "ĠSocial": 4281,
      "Ġtall": 4282,
      "rive": 4283,
      "inois": 4284,
      "ĠMid": 4285,
      "oven": 4286,
      "mann": 4287,
      "Ġesc": 4288,
      "Ġfeatures": 4289,
      "ĠColor": 4290,
      "mad": 4291,
      "Ġminor": 4292,
      "ĠIS": 4293,
      "ĠIV": 4294,
      "ĠJones": 4295,
      "Ġleague": 4296,
      "ĠIndepend": 4297,
      "Ġpiece": 4298,
      "Ð¾": 4299,
      "uns": 4300,
      "umm": 4301,
      "Ġgrand": 4302,
      "Ġarr": 4303,
      "Ġdescribed": 4304,
      "Ġ<": 4305,
      "Ġcomposers": 4306,
      "iest": 4307,
      "isher": 4308,
      "2017": 4309,
      "Ġrap": 4310,
      "ources": 4311,
      "Ġelectron": 4312,
      "Ġletter": 4313,
      "Ġsource": 4314,
      "ĠCross": 4315,
      "ĠWinn": 4316,
      "ĠAsian": 4317,
      "ora": 4318,
      "ĠGeorgia": 4319,
      "dess": 4320,
      "ĠSouthern": 4321,
      "ĠBall": 4322,
      "ĠGra": 4323,
      "Ġparents": 4324,
      "ĠFriendly": 4325,
      "akh": 4326,
      "year": 4327,
      "Ġsaw": 4328,
      "Ġnuclear": 4329,
      "Ġoriginally": 4330,
      "dy": 4331,
      "Ġfly": 4332,
      "ĠWindows": 4333,
      "Ġtells": 4334,
      "Ġwinning": 4335,
      "Ġsequ": 4336,
      "Ġthous": 4337,
      "Ġhappened": 4338,
      "Ġdoc": 4339,
      "Ġleave": 4340,
      "Ġmatches": 4341,
      "Ġinhabit": 4342,
      "Ġelectr": 4343,
      "Ġaud": 4344,
      "Ġ64": 4345,
      "ĠTower": 4346,
      "Ġhtt": 4347,
      "Ġ1917": 4348,
      "ĠÂ": 4349,
      "Ġarg": 4350,
      "alo": 4351,
      "estab": 4352,
      "Ġolder": 4353,
      "Ġop": 4354,
      "Ġdou": 4355,
      "alled": 4356,
      "uer": 4357,
      "Ġcur": 4358,
      "Ġmic": 4359,
      "riage": 4360,
      "rivate": 4361,
      "ta": 4362,
      "ĠJohnson": 4363,
      "Ġaccept": 4364,
      "Ġrivers": 4365,
      "ropolitan": 4366,
      "ĠRay": 4367,
      "Ġplanet": 4368,
      "mission": 4369,
      "ĠSa": 4370,
      "Ġ70": 4371,
      "ĠRegion": 4372,
      "umer": 4373,
      "opt": 4374,
      "Ġfif": 4375,
      "orders": 4376,
      "Ġlett": 4377,
      "rows": 4378,
      "1981": 4379,
      "ilms": 4380,
      "ĠDomin": 4381,
      "Ġ2025": 4382,
      "iment": 4383,
      "Ġmole": 4384,
      "ĠLabour": 4385,
      "ĠToronto": 4386,
      "lah": 4387,
      "Ġsecret": 4388,
      "ĠAD": 4389,
      "oca": 4390,
      "ĠMP": 4391,
      "2020": 4392,
      "achus": 4393,
      "Ġrelationship": 4394,
      "Ġtax": 4395,
      "rol": 4396,
      "Ġshoot": 4397,
      "anned": 4398,
      "Ġcou": 4399,
      "etts": 4400,
      "ĠTre": 4401,
      "ĠSwiss": 4402,
      "Ge": 4403,
      "ĠGer": 4404,
      "ĠFamily": 4405,
      "gn": 4406,
      "het": 4407,
      "Ġfollowed": 4408,
      "light": 4409,
      "aths": 4410,
      "ĠGovernment": 4411,
      "fall": 4412,
      "Ġtraditional": 4413,
      "ĠBelgian": 4414,
      "inces": 4415,
      "ĠNA": 4416,
      "Ġkept": 4417,
      "Ġmarket": 4418,
      "va": 4419,
      "Ġscored": 4420,
      "ĠUnivers": 4421,
      "Ġstructures": 4422,
      "ĠAncient": 4423,
      "Ġstarting": 4424,
      "Ã¡n": 4425,
      "ko": 4426,
      "Ġeastern": 4427,
      "ĠStat": 4428,
      "1979": 4429,
      "Ġsat": 4430,
      "Ġcomed": 4431,
      "ider": 4432,
      "Ġresults": 4433,
      "Ġoil": 4434,
      "Ġdark": 4435,
      "ĠChampions": 4436,
      "ĠTrophy": 4437,
      "Ġanal": 4438,
      "Ġterritory": 4439,
      "ĠCorn": 4440,
      "Ġpop": 4441,
      "ĠKent": 4442,
      "Ġelements": 4443,
      "oral": 4444,
      "Ġrather": 4445,
      "Ġtrade": 4446,
      "asy": 4447,
      "ĠLady": 4448,
      "ĠJan": 4449,
      "ublican": 4450,
      "ĠAndrew": 4451,
      "ĠPhilipp": 4452,
      "Ġdesigned": 4453,
      "arp": 4454,
      "Ġcost": 4455,
      "omy": 4456,
      "ĠDetroit": 4457,
      "ected": 4458,
      "Comp": 4459,
      "oses": 4460,
      "aching": 4461,
      "Ġoccup": 4462,
      "yan": 4463,
      "ĠMore": 4464,
      "ĠLoc": 4465,
      "reng": 4466,
      "Ġpowerful": 4467,
      "Ind": 4468,
      "Ġstations": 4469,
      "ĠShow": 4470,
      "Ġstudied": 4471,
      "ĠMen": 4472,
      "ĠJeff": 4473,
      "Ã±": 4474,
      "ouch": 4475,
      "Ġskin": 4476,
      "Ġconv": 4477,
      "Ġnormal": 4478,
      "ĠAmericans": 4479,
      "Ġbelow": 4480,
      "aters": 4481,
      "Ġresearch": 4482,
      "hedral": 4483,
      "ĠIllinois": 4484,
      "Ġretired": 4485,
      "Ġsimple": 4486,
      "Ġsem": 4487,
      "Ġquest": 4488,
      "Ġsexual": 4489,
      "ĠBell": 4490,
      "Ġchampionship": 4491,
      "Ġcarry": 4492,
      "Ġbehav": 4493,
      "ĠFrancisco": 4494,
      "Ġinhabitants": 4495,
      "Ġcover": 4496,
      "ĠAbb": 4497,
      "Ġdu": 4498,
      "Ġaircraft": 4499,
      "ĠTurkey": 4500,
      "bach": 4501,
      "Ġdriv": 4502,
      "ĠBet": 4503,
      "ĠWild": 4504,
      "Ġregions": 4505,
      "key": 4506,
      "ova": 4507,
      "Ġbecoming": 4508,
      "obal": 4509,
      "ĠSu": 4510,
      "Ġcontains": 4511,
      "SÃ©rie": 4512,
      "ĠHart": 4513,
      "Ġcarbon": 4514,
      "Ġjoin": 4515,
      "Ġath": 4516,
      "icy": 4517,
      "Ġboard": 4518,
      "ohn": 4519,
      "Ġfourth": 4520,
      "Ġcases": 4521,
      "ĠPier": 4522,
      "acts": 4523,
      "Ġ75": 4524,
      "ĠWars": 4525,
      "Ġbelong": 4526,
      "ĠGi": 4527,
      "ĠNow": 4528,
      "ĠInternet": 4529,
      "ĠArthur": 4530,
      "production": 4531,
      "bl": 4532,
      "wide": 4533,
      "uses": 4534,
      "ĠArgentina": 4535,
      "Ġprobably": 4536,
      "ĠPublic": 4537,
      "ĠPortugal": 4538,
      "Ġtroops": 4539,
      "dam": 4540,
      "hood": 4541,
      "ĠChart": 4542,
      "Ġsyn": 4543,
      "Ġsubject": 4544,
      "ĠAirport": 4545,
      "ĠCongress": 4546,
      "Ġrunner": 4547,
      "Ġphysicist": 4548,
      "achusetts": 4549,
      "lement": 4550,
      "ĠJon": 4551,
      "Ġvs": 4552,
      "Ġvisit": 4553,
      "Ġpressure": 4554,
      "Ġjud": 4555,
      "lahoma": 4556,
      "ĠâĢ¢": 4557,
      "Ġpaper": 4558,
      "AN": 4559,
      "Ġsu": 4560,
      "ilies": 4561,
      "ĠPit": 4562,
      "Ġshape": 4563,
      "Ġdeep": 4564,
      "ocks": 4565,
      "ava": 4566,
      "ĠHoly": 4567,
      "Ġseparate": 4568,
      "Ġcelebr": 4569,
      "ancy": 4570,
      "ĠProvince": 4571,
      "ĠChris": 4572,
      "ype": 4573,
      "oen": 4574,
      "itte": 4575,
      "ĠFame": 4576,
      "Ġyour": 4577,
      "Ġguitarist": 4578,
      "sylv": 4579,
      "iences": 4580,
      "con": 4581,
      "ĠDef": 4582,
      "Ġepisodes": 4583,
      "Ġstep": 4584,
      "lit": 4585,
      "enburg": 4586,
      "ĠLo": 4587,
      "Ġarm": 4588,
      "ĠPhiladelphia": 4589,
      "Ġregular": 4590,
      "gium": 4591,
      "ductor": 4592,
      "ened": 4593,
      "Ġ1914": 4594,
      "ĠEncyclop": 4595,
      "ĠDenmark": 4596,
      "Ġpieces": 4597,
      "ographer": 4598,
      "Ġentire": 4599,
      "Ġfiction": 4600,
      "ingu": 4601,
      "abb": 4602,
      "Ġvan": 4603,
      "cules": 4604,
      "Ġtrees": 4605,
      "ES": 4606,
      "hold": 4607,
      "ĠInt": 4608,
      "Division": 4609,
      "ĠLive": 4610,
      "songwriter": 4611,
      "asion": 4612,
      "ĠHome": 4613,
      "ĠFord": 4614,
      "ledge": 4615,
      "Musical": 4616,
      "Ġsun": 4617,
      "Ġenvironment": 4618,
      "ĠCommon": 4619,
      "wa": 4620,
      "ĠFour": 4621,
      "Ġstructure": 4622,
      "UK": 4623,
      "Ġmedia": 4624,
      "Ġmunicipalities": 4625,
      "ĠBarb": 4626,
      "oons": 4627,
      "Ġcentre": 4628,
      "Ġmedical": 4629,
      "esc": 4630,
      "Ġcour": 4631,
      "enced": 4632,
      "ĠJoe": 4633,
      "ĠChile": 4634,
      "ĠMaria": 4635,
      "Ġdistricts": 4636,
      "Ãº": 4637,
      "Ġx": 4638,
      "ĠHard": 4639,
      "ĠConference": 4640,
      "https": 4641,
      "220": 4642,
      "pes": 4643,
      "urop": 4644,
      "ĠMajor": 4645,
      "ĠEarl": 4646,
      "1978": 4647,
      "Ġmeant": 4648,
      "Ġindependence": 4649,
      "house": 4650,
      "onald": 4651,
      "Ġsaf": 4652,
      "ĠPhys": 4653,
      "Ġstudio": 4654,
      "ĠPok": 4655,
      "Ġra": 4656,
      "fact": 4657,
      "odies": 4658,
      "Ġgenerally": 4659,
      "Ġconductor": 4660,
      "ĠSecretary": 4661,
      "ĠBible": 4662,
      "ĠRod": 4663,
      "Ġpers": 4664,
      "sylvania": 4665,
      "uese": 4666,
      "Ġhours": 4667,
      "Ġsurround": 4668,
      "ĠTokyo": 4669,
      "Ġstandard": 4670,
      "ĠThree": 4671,
      "ĠScience": 4672,
      "ĠDie": 4673,
      "ables": 4674,
      "ĠChap": 4675,
      "Former": 4676,
      "uj": 4677,
      "ĠEnd": 4678,
      "ygen": 4679,
      "ĠHistor": 4680,
      "speople": 4681,
      "ĠDivisiÃ³n": 4682,
      "Ġmess": 4683,
      "obile": 4684,
      "Ġcritic": 4685,
      "Ġliqu": 4686,
      "ĠPrincess": 4687,
      "Bundesliga": 4688,
      "ĠSom": 4689,
      "ĠAppearances": 4690,
      "ĠCD": 4691,
      "Ġgrew": 4692,
      "Ġheat": 4693,
      "Ġautom": 4694,
      "ER": 4695,
      "Ġwins": 4696,
      "ĠSus": 4697,
      "ĠDN": 4698,
      "ĠEven": 4699,
      "ĠTelevision": 4700,
      "ĠConserv": 4701,
      "ivity": 4702,
      "Ġrank": 4703,
      "kin": 4704,
      "ĠAst": 4705,
      "ili": 4706,
      "Ġthroughout": 4707,
      "ĠStanley": 4708,
      "uation": 4709,
      "ĠFort": 4710,
      "ready": 4711,
      "BA": 4712,
      "BS": 4713,
      "met": 4714,
      "Ġthr": 4715,
      "Ġ90": 4716,
      "Ġends": 4717,
      "Ġmiss": 4718,
      "Ġartists": 4719,
      "Ġdirected": 4720,
      "Ġbo": 4721,
      "Ġ1912": 4722,
      "ĠGirl": 4723,
      "ĠGro": 4724,
      "ĠJohann": 4725,
      "1977": 4726,
      "Ġeth": 4727,
      "Ġfuture": 4728,
      "Ġden": 4729,
      "rated": 4730,
      "Ġtell": 4731,
      "Ġtaking": 4732,
      "ĠSev": 4733,
      "raq": 4734,
      "hew": 4735,
      "ĠRout": 4736,
      "sex": 4737,
      "ĠOper": 4738,
      "ĠInstitute": 4739,
      "Ġ500": 4740,
      "ension": 4741,
      "ospital": 4742,
      "ĠTy": 4743,
      "ĠInc": 4744,
      "Ġwhy": 4745,
      "Ġbehind": 4746,
      "Ġbott": 4747,
      "Ġeducation": 4748,
      "Ġbrain": 4749,
      "Ġcontroll": 4750,
      "Ġuniversity": 4751,
      "ĠMun": 4752,
      "ĠName": 4753,
      "endar": 4754,
      "Ġaction": 4755,
      "ĠMicro": 4756,
      "ilton": 4757,
      "ikip": 4758,
      "ĠConfeder": 4759,
      "worth": 4760,
      "pts": 4761,
      "ĠRangers": 4762,
      "ĠKim": 4763,
      "ĠNintendo": 4764,
      "Ġcomplex": 4765,
      "1974": 4766,
      "Ġdrink": 4767,
      "Ġruled": 4768,
      "Ġcurrently": 4769,
      "Ġunit": 4770,
      "ĠEs": 4771,
      "ĠKen": 4772,
      "ournament": 4773,
      "Ðµ": 4774,
      "ingen": 4775,
      "Ġep": 4776,
      "izations": 4777,
      "Ġimm": 4778,
      "unicipalities": 4779,
      "Ġwarm": 4780,
      "Ġcer": 4781,
      "ĠVi": 4782,
      "Ġcode": 4783,
      "Ġattacks": 4784,
      "Ġofficially": 4785,
      "ĠMassachusetts": 4786,
      "Ġpiano": 4787,
      "Ġshot": 4788,
      "1976": 4789,
      "ĠWhat": 4790,
      "Ġcommunity": 4791,
      "Ġ1910": 4792,
      "pan": 4793,
      "Ġpurp": 4794,
      "ela": 4795,
      "Ġnature": 4796,
      "ĠDaniel": 4797,
      "Ġbase": 4798,
      "Ġmoving": 4799,
      "Ġenc": 4800,
      "Ġactivist": 4801,
      "Ġwrestler": 4802,
      "Ġspoken": 4803,
      "itation": 4804,
      "ĠKe": 4805,
      "Ġteacher": 4806,
      "ĠTay": 4807,
      "ĠPost": 4808,
      "Is": 4809,
      "ibb": 4810,
      "Ġpoor": 4811,
      "ĠAri": 4812,
      "ector": 4813,
      "IN": 4814,
      "Ġri": 4815,
      "Ġrid": 4816,
      "Ġfoc": 4817,
      "Ġnewsp": 4818,
      "Ġelement": 4819,
      "Ġtransport": 4820,
      "text": 4821,
      "ploy": 4822,
      "kins": 4823,
      "avaria": 4824,
      "Ġstopped": 4825,
      "ĠModern": 4826,
      "Ġtable": 4827,
      "gress": 4828,
      "Ġhair": 4829,
      "utions": 4830,
      "ĠBuff": 4831,
      "ĠGab": 4832,
      "Ġsingers": 4833,
      "Ġ34": 4834,
      "Ġdisestab": 4835,
      "hire": 4836,
      "ĠInst": 4837,
      "rÃ©": 4838,
      "inet": 4839,
      "ises": 4840,
      "Ġbillion": 4841,
      "ĠHor": 4842,
      "chie": 4843,
      "ulation": 4844,
      "ËĪ": 4845,
      "ques": 4846,
      "ffic": 4847,
      "ĠMcC": 4848,
      "Ret": 4849,
      "Ġfoss": 4850,
      "ĠAge": 4851,
      "ĠRam": 4852,
      "urd": 4853,
      "ĠBooks": 4854,
      "ĠFederal": 4855,
      "inary": 4856,
      "ati": 4857,
      "Ġoccur": 4858,
      "ĠHit": 4859,
      "astic": 4860,
      "ensity": 4861,
      "Ġasked": 4862,
      "ĠVill": 4863,
      "Ġmechan": 4864,
      "ĠTreat": 4865,
      "ĠJun": 4866,
      "Ġobjects": 4867,
      "Ġletters": 4868,
      "Ġindic": 4869,
      "aval": 4870,
      "Ġwriters": 4871,
      "Ġself": 4872,
      "Ġsister": 4873,
      "ĠFound": 4874,
      "ĠKong": 4875,
      "ĠVII": 4876,
      "chen": 4877,
      "ĠCas": 4878,
      "owa": 4879,
      "Ġstreng": 4880,
      "aped": 4881,
      "ĠOttoman": 4882,
      "una": 4883,
      "SP": 4884,
      "Ġmoon": 4885,
      "Ġstarts": 4886,
      "ista": 4887,
      "ĠHonours": 4888,
      "Ġearthqu": 4889,
      "Ġfrequ": 4890,
      "uro": 4891,
      "Ġcart": 4892,
      "Ġhere": 4893,
      "wick": 4894,
      "Ġcitiz": 4895,
      "Ġfought": 4896,
      "Ġalready": 4897,
      "Ġsport": 4898,
      "Ġkills": 4899,
      "Ġaccording": 4900,
      "ĠColumbia": 4901,
      "ĠStephen": 4902,
      "rog": 4903,
      "ester": 4904,
      "ĠDepartment": 4905,
      "Ġdie": 4906,
      "ĠPennsylvania": 4907,
      "Ġtowards": 4908,
      "ĠPot": 4909,
      "ĠLike": 4910,
      "Ġmeasure": 4911,
      "ĠBah": 4912,
      "Ġrailway": 4913,
      "Ġhundred": 4914,
      "ghan": 4915,
      "Ġshowing": 4916,
      "Ġcut": 4917,
      "ĠSports": 4918,
      "Ġprinc": 4919,
      "Ġearlier": 4920,
      "nic": 4921,
      "Ġinstruments": 4922,
      "Ġsummer": 4923,
      "1975": 4924,
      "par": 4925,
      "ĠBoth": 4926,
      "ĠNazi": 4927,
      "ãĤ": 4928,
      "ĠBack": 4929,
      "agen": 4930,
      "Ev": 4931,
      "Ġbank": 4932,
      "Ġdanger": 4933,
      "1973": 4934,
      "Ġretrieved": 4935,
      "ription": 4936,
      "ĠTit": 4937,
      "elop": 4938,
      "Ġspecific": 4939,
      "ears": 4940,
      "gency": 4941,
      "ĠManchester": 4942,
      "Ġmanagers": 4943,
      "400": 4944,
      "Ġschol": 4945,
      "ĠNorway": 4946,
      "ĠOhio": 4947,
      "Ġships": 4948,
      "alm": 4949,
      "othes": 4950,
      "nes": 4951,
      "ĠTechn": 4952,
      "Ġforced": 4953,
      "Ġnorthwest": 4954,
      "Ġinfect": 4955,
      "ĠId": 4956,
      "Ġgetting": 4957,
      "ĠOpen": 4958,
      "Ã©mon": 4959,
      "ĠOrgan": 4960,
      "ĠErn": 4961,
      "Ġ36": 4962,
      "Ġpersonal": 4963,
      "ti": 4964,
      "ĠMike": 4965,
      "ĠMoon": 4966,
      "avor": 4967,
      "Ġcharge": 4968,
      "Ġproduce": 4969,
      "ictionary": 4970,
      "osaurus": 4971,
      "reedom": 4972,
      "eks": 4973,
      "Ġ1911": 4974,
      "Ġarrest": 4975,
      "teen": 4976,
      "ĠFreder": 4977,
      "ĠMuslim": 4978,
      "iplom": 4979,
      "rative": 4980,
      "ĠForce": 4981,
      "Ġdriver": 4982,
      "acc": 4983,
      "ĠEpisode": 4984,
      "igned": 4985,
      "ĠOklahoma": 4986,
      "ugg": 4987,
      "Ġfighting": 4988,
      "Ġoffer": 4989,
      "ĠEth": 4990,
      "ĠWomen": 4991,
      "Ġenem": 4992,
      "ĠGeography": 4993,
      "ictional": 4994,
      "ĠChristmas": 4995,
      "ĠBow": 4996,
      "ammals": 4997,
      "ikipedia": 4998,
      "'.": 4999,
      "pa": 5000,
      "uther": 5001,
      "Ġneg": 5002,
      "wegian": 5003,
      "Ġhelps": 5004,
      "Ġ1916": 5005,
      "Ġterms": 5006,
      "Ġsociety": 5007,
      "ĠTro": 5008,
      "soft": 5009,
      "Ġ1908": 5010,
      "Ġdistance": 5011,
      "Ġclubs": 5012,
      "ker": 5013,
      "abama": 5014,
      "Ġyoun": 5015,
      "weight": 5016,
      "ĠSanta": 5017,
      "usion": 5018,
      "Ġ1913": 5019,
      "ĠPop": 5020,
      "ader": 5021,
      "awn": 5022,
      "ĠBon": 5023,
      "ĠBus": 5024,
      "ĠBank": 5025,
      "ients": 5026,
      "ĠIraq": 5027,
      "Ġattract": 5028,
      "vention": 5029,
      "Ġfinished": 5030,
      "ĠCy": 5031,
      "Ġhom": 5032,
      "Ġatom": 5033,
      "osphere": 5034,
      "Ġvalue": 5035,
      "bourne": 5036,
      "French": 5037,
      "Ġgoddess": 5038,
      "Ġindustry": 5039,
      "jan": 5040,
      "ĠPen": 5041,
      "ĠNick": 5042,
      "Ġturned": 5043,
      "ĠEconom": 5044,
      "Ġpassed": 5045,
      "Ġadapt": 5046,
      "Ġbelief": 5047,
      "ĠKhan": 5048,
      "Ġmountains": 5049,
      "lad": 5050,
      "uh": 5051,
      "ĠTs": 5052,
      "ĠHuman": 5053,
      "Ġkilomet": 5054,
      "oa": 5055,
      "Ġ)": 5056,
      "ability": 5057,
      "Ġsal": 5058,
      "Ġroad": 5059,
      "ĠManager": 5060,
      "Ġlegal": 5061,
      "IA": 5062,
      "ja": 5063,
      "ĠRail": 5064,
      "ĠFle": 5065,
      "Ġhappens": 5066,
      "ences": 5067,
      "2018": 5068,
      "pool": 5069,
      "Ġtit": 5070,
      "adian": 5071,
      "ĠStand": 5072,
      "Europ": 5073,
      "ĠTimes": 5074,
      "ĠUN": 5075,
      "iful": 5076,
      "Ġdecl": 5077,
      "Ġedition": 5078,
      "isk": 5079,
      "ĠGram": 5080,
      "ĠEll": 5081,
      "ĠSyd": 5082,
      "Ġly": 5083,
      "Ġalph": 5084,
      "ami": 5085,
      "ĠBeat": 5086,
      "ĠLast": 5087,
      "Ġfigure": 5088,
      "Ġhus": 5089,
      "stone": 5090,
      "izes": 5091,
      "over": 5092,
      "This": 5093,
      "which": 5094,
      "Ġvocals": 5095,
      "ĠHockey": 5096,
      "Ġveh": 5097,
      "VD": 5098,
      "Ġmanu": 5099,
      "enty": 5100,
      "perial": 5101,
      "hs": 5102,
      "ularly": 5103,
      "merc": 5104,
      "Ġmonarch": 5105,
      "John": 5106,
      "inals": 5107,
      "Ġbal": 5108,
      "Ġphysical": 5109,
      "ocol": 5110,
      "Ġprograms": 5111,
      "adesh": 5112,
      "ĠArmenian": 5113,
      "Ġdom": 5114,
      "Ġarticle": 5115,
      "Ġtennis": 5116,
      "inated": 5117,
      "eless": 5118,
      "ĠEvery": 5119,
      "ysis": 5120,
      "Ġcomputers": 5121,
      "ĠSand": 5122,
      "usc": 5123,
      "Ġbeaut": 5124,
      "ĠOnly": 5125,
      "Ġtrains": 5126,
      "Ġpil": 5127,
      "ĠBra": 5128,
      "ify": 5129,
      "orship": 5130,
      "Sportspeople": 5131,
      "ĠBol": 5132,
      "ĠPerson": 5133,
      "Ġimage": 5134,
      "bec": 5135,
      "Ġface": 5136,
      "Man": 5137,
      "Ġocean": 5138,
      "Ġ1915": 5139,
      "ĠFox": 5140,
      "yer": 5141,
      "ĠSerb": 5142,
      "ĠRadio": 5143,
      "Ġ45": 5144,
      "ĠLiber": 5145,
      "ĠNag": 5146,
      "ĠStr": 5147,
      "ĠMexican": 5148,
      "ĠFA": 5149,
      "ceed": 5150,
      "Ġactive": 5151,
      "Ġruns": 5152,
      "align": 5153,
      "Ġthing": 5154,
      "Ġcollect": 5155,
      "ĠCard": 5156,
      "Ġwhose": 5157,
      "Ġactually": 5158,
      "uay": 5159,
      "Ð¸": 5160,
      "erve": 5161,
      "ĠKelly": 5162,
      "Ġassoci": 5163,
      "cow": 5164,
      "ĠColl": 5165,
      "ĠSpace": 5166,
      "ĠDisc": 5167,
      "Ġeventually": 5168,
      "Ġeasily": 5169,
      "Flag": 5170,
      "ĠDoug": 5171,
      "Ġsubst": 5172,
      "ĠSteve": 5173,
      "Ġwide": 5174,
      "Ġwalk": 5175,
      "Ġmap": 5176,
      "atinum": 5177,
      "Ġoxygen": 5178,
      "Ġ;": 5179,
      "Ġvote": 5180,
      "iot": 5181,
      "Ġsimply": 5182,
      "1972": 5183,
      "Ġminutes": 5184,
      "ĠWalter": 5185,
      "Ġcare": 5186,
      "throp": 5187,
      "water": 5188,
      "oration": 5189,
      "aya": 5190,
      "ĠKarl": 5191,
      "Ġyellow": 5192,
      "Ġleading": 5193,
      "put": 5194,
      "ĠPun": 5195,
      "ĠKir": 5196,
      "ĠPres": 5197,
      "coln": 5198,
      "ĠMichel": 5199,
      "Ġmill": 5200,
      "ternal": 5201,
      "Ġeconomy": 5202,
      "Ġeconomic": 5203,
      "ĠHans": 5204,
      "Ġstadium": 5205,
      "ĠVietnam": 5206,
      "Sw": 5207,
      "ĠLew": 5208,
      "ĠDam": 5209,
      "Ġweeks": 5210,
      "ĠGallery": 5211,
      "ares": 5212,
      "ĠAlabama": 5213,
      "ĠRomania": 5214,
      "ĠDeaths": 5215,
      "ĠIslamic": 5216,
      "ĠBa": 5217,
      "Music": 5218,
      "Ġcand": 5219,
      "Ġconqu": 5220,
      "ographic": 5221,
      "ĠPortuguese": 5222,
      "iced": 5223,
      "Ġwhether": 5224,
      "Ġearn": 5225,
      "Ġcampaign": 5226,
      "osh": 5227,
      "illed": 5228,
      "At": 5229,
      "ties": 5230,
      "urches": 5231,
      "ĠExp": 5232,
      "Ġrunning": 5233,
      "ĠSydney": 5234,
      "ÃŁ": 5235,
      "ĠAh": 5236,
      "Ġdry": 5237,
      "upiter": 5238,
      "ifican": 5239,
      "Ġspent": 5240,
      "Ġshowed": 5241,
      "bre": 5242,
      "iat": 5243,
      "Ġmachine": 5244,
      "itage": 5245,
      "ĠGil": 5246,
      "Ġgreatest": 5247,
      "enh": 5248,
      "Ġpian": 5249,
      "Ġetc": 5250,
      "Ital": 5251,
      "Ġcomplete": 5252,
      "Ġnearly": 5253,
      "ĠPopulation": 5254,
      "Ġattempt": 5255,
      "rect": 5256,
      "ĠFree": 5257,
      "1960": 5258,
      "upright": 5259,
      "Ġneeds": 5260,
      "Ġbring": 5261,
      "Ġfoot": 5262,
      "ĠAtt": 5263,
      "asing": 5264,
      "ĠDem": 5265,
      "Ġscale": 5266,
      "Ġweather": 5267,
      "ĠBros": 5268,
      "iding": 5269,
      "Ġdivision": 5270,
      "ĠAfghan": 5271,
      "ĠCopa": 5272,
      "Ġring": 5273,
      "Ġfamilies": 5274,
      "Ġquite": 5275,
      "ĠMovie": 5276,
      "isl": 5277,
      "ĠBalt": 5278,
      "eget": 5279,
      "ĠSoccer": 5280,
      "Ġdraw": 5281,
      "Ġrespons": 5282,
      "urban": 5283,
      "iology": 5284,
      "Ġplaced": 5285,
      "Ġtradition": 5286,
      "Ġflu": 5287,
      "SL": 5288,
      "Ġwild": 5289,
      "ĠBulgar": 5290,
      "zo": 5291,
      "Ġchart": 5292,
      "Ġtrav": 5293,
      "Ġcensus": 5294,
      "ĠKash": 5295,
      "ardo": 5296,
      "itals": 5297,
      "Ġfle": 5298,
      "ello": 5299,
      "icks": 5300,
      "Ġeffects": 5301,
      "ĠMap": 5302,
      "Ġadopt": 5303,
      "ittee": 5304,
      "FL": 5305,
      "Ġpun": 5306,
      "osis": 5307,
      "Ġhusband": 5308,
      "Count": 5309,
      "Ġnation": 5310,
      "ĠLy": 5311,
      "Ġroy": 5312,
      "ĠActress": 5313,
      "ON": 5314,
      "isation": 5315,
      "Ġhunt": 5316,
      "Ġfruit": 5317,
      "ĠPokÃ©mon": 5318,
      "ĠDream": 5319,
      "ĠFerr": 5320,
      "ila": 5321,
      "Ġemb": 5322,
      "erb": 5323,
      "Ġcrime": 5324,
      "Ġdrama": 5325,
      "Ġtechnology": 5326,
      "istance": 5327,
      "ĠOt": 5328,
      "ourg": 5329,
      "sey": 5330,
      "isms": 5331,
      "ussian": 5332,
      "Ġweapons": 5333,
      "Ġ38": 5334,
      "Ġdeal": 5335,
      "aith": 5336,
      "Ġcook": 5337,
      "Ġnar": 5338,
      "ĠDown": 5339,
      "ĠBelgium": 5340,
      "Wh": 5341,
      "roll": 5342,
      "ĠEp": 5343,
      "Ġ48": 5344,
      "Ġonline": 5345,
      "antine": 5346,
      "othing": 5347,
      "Deaths": 5348,
      "OS": 5349,
      "aring": 5350,
      "ĠBab": 5351,
      "ĠHal": 5352,
      "acks": 5353,
      "Ġcomedian": 5354,
      "ĠRoss": 5355,
      "itting": 5356,
      "Ġlikely": 5357,
      "Austral": 5358,
      "angel": 5359,
      "tsburgh": 5360,
      "coh": 5361,
      "osen": 5362,
      "Ġcontain": 5363,
      "Ġchess": 5364,
      "Ġreading": 5365,
      "ĠRem": 5366,
      "Ġones": 5367,
      "ovak": 5368,
      "Ġmultiple": 5369,
      "ãģ": 5370,
      "eral": 5371,
      "atab": 5372,
      "ĠAk": 5373,
      "rice": 5374,
      "ĠCountry": 5375,
      "ĠBiography": 5376,
      "Jul": 5377,
      "Ġlay": 5378,
      "irt": 5379,
      "estic": 5380,
      "ĠScient": 5381,
      "Ġneigh": 5382,
      "osing": 5383,
      "Ġnews": 5384,
      "Ġeggs": 5385,
      "more": 5386,
      "aux": 5387,
      "ĠSund": 5388,
      "ums": 5389,
      "Ġ300": 5390,
      "ĠAnne": 5391,
      "North": 5392,
      "Ġund": 5393,
      "Ġjazz": 5394,
      "ĠPolit": 5395,
      "----": 5396,
      "Ġcalendar": 5397,
      "Ġcommunic": 5398,
      "ĠHolly": 5399,
      "Ġinfluence": 5400,
      "Ġlink": 5401,
      "ĠNorwegian": 5402,
      "ĠTaylor": 5403,
      "ĠMadrid": 5404,
      "Ġreported": 5405,
      "Ġmythology": 5406,
      "May": 5407,
      "Ġplane": 5408,
      "ressed": 5409,
      "HF": 5410,
      "ĠStory": 5411,
      "ĠMinn": 5412,
      "ipe": 5413,
      "ĠDer": 5414,
      "imal": 5415,
      "uments": 5416,
      "outheast": 5417,
      "Ġsym": 5418,
      "ĠCur": 5419,
      "Ġowned": 5420,
      "site": 5421,
      "Ġprivate": 5422,
      "wich": 5423,
      "Ġcry": 5424,
      "ĠLim": 5425,
      "ĠKy": 5426,
      "ĠSpring": 5427,
      "AppsGoalsAppsGoalsAppsGoalsAppsGoals": 5428,
      "Polit": 5429,
      "ĠSel": 5430,
      "ĠBush": 5431,
      "ĠIowa": 5432,
      "cha": 5433,
      "ĠSaturn": 5434,
      "ĠRhine": 5435,
      "ĠBirths": 5436,
      "ĠAlbums": 5437,
      "inosaur": 5438,
      "ĠTitle": 5439,
      "ĠPower": 5440,
      "ĠHay": 5441,
      "iba": 5442,
      "ĠWho": 5443,
      "March": 5444,
      "Ġcenturies": 5445,
      "fort": 5446,
      "pson": 5447,
      "aded": 5448,
      "ĠLor": 5449,
      "1969": 5450,
      "Ġgenus": 5451,
      "ĠDoctor": 5452,
      "Ġhouses": 5453,
      "Actors": 5454,
      "abet": 5455,
      "January": 5456,
      "ĠMas": 5457,
      "Ġselected": 5458,
      "140": 5459,
      "ĠAirlines": 5460,
      "Ġsupported": 5461,
      "po": 5462,
      "atar": 5463,
      "Ġ120": 5464,
      "Ġflow": 5465,
      "ĠCastle": 5466,
      "Ġconcert": 5467,
      "aga": 5468,
      "ĠVar": 5469,
      "elsh": 5470,
      "ĠCoast": 5471,
      "Ġdynasty": 5472,
      "ĠBrand": 5473,
      "odox": 5474,
      "Ġ37": 5475,
      "ĠTurkish": 5476,
      "Ġbacter": 5477,
      "ĠRena": 5478,
      "ellig": 5479,
      "weet": 5480,
      "Ġwinner": 5481,
      "Ġnotes": 5482,
      "icians": 5483,
      "ĠWilson": 5484,
      "230": 5485,
      "cks": 5486,
      "Ġdiplom": 5487,
      "Ġ44": 5488,
      "Ġdisp": 5489,
      "Ġpainting": 5490,
      "South": 5491,
      "Ġdance": 5492,
      "ĠBh": 5493,
      "ologists": 5494,
      "Ġaddition": 5495,
      "Ġreferred": 5496,
      "ĠMoscow": 5497,
      "mercial": 5498,
      "ping": 5499,
      "Ġupon": 5500,
      "Ġprevent": 5501,
      "Ġforeign": 5502,
      "Ġancest": 5503,
      "ounter": 5504,
      "ĠArm": 5505,
      "AB": 5506,
      "olis": 5507,
      "ĠWalt": 5508,
      "Ġemer": 5509,
      "Ġseat": 5510,
      "Ġdisestablishments": 5511,
      "Ġpark": 5512,
      "ucks": 5513,
      "Ġcolors": 5514,
      "Ġ1907": 5515,
      "ĠCanadiens": 5516,
      "rees": 5517,
      "2019": 5518,
      "Ġnative": 5519,
      "Ġdoing": 5520,
      "ĠIndones": 5521,
      "Ġmatter": 5522,
      "Ġremoved": 5523,
      "ĠCirc": 5524,
      "ully": 5525,
      "ĠAsh": 5526,
      "Ġaccident": 5527,
      "aro": 5528,
      "ĠCost": 5529,
      "Ġ39": 5530,
      "anga": 5531,
      "Ġproducts": 5532,
      "enger": 5533,
      "ĠTam": 5534,
      "esse": 5535,
      "Ġdefin": 5536,
      "ĠSpecial": 5537,
      "ione": 5538,
      "Ġdial": 5539,
      "iva": 5540,
      "ussia": 5541,
      "130": 5542,
      "rier": 5543,
      "opher": 5544,
      "ĠAdd": 5545,
      "Ġ1906": 5546,
      "Ġequal": 5547,
      "ĠChristianity": 5548,
      "Ġrespect": 5549,
      "ĠLincoln": 5550,
      "Ġdro": 5551,
      "Ġappears": 5552,
      "athan": 5553,
      "1971": 5554,
      "aph": 5555,
      "Ġseats": 5556,
      "Ġflat": 5557,
      "Ġorchestra": 5558,
      "Ġroom": 5559,
      "Ġconditions": 5560,
      "language": 5561,
      "ĠMarc": 5562,
      "Ġrob": 5563,
      "Ġharm": 5564,
      "ĠRele": 5565,
      "Ġweight": 5566,
      "ĠAdams": 5567,
      "embly": 5568,
      "Ġfac": 5569,
      "Ġdoctor": 5570,
      "Ġsignifican": 5571,
      "Ġinvest": 5572,
      "Ð½": 5573,
      "Year": 5574,
      "box": 5575,
      "Ġbit": 5576,
      "Ġlots": 5577,
      "ĠJuan": 5578,
      "Ġtrying": 5579,
      "ÙĦ": 5580,
      "Ġblock": 5581,
      "ĠTowns": 5582,
      "ulpt": 5583,
      "ĠWinter": 5584,
      "cano": 5585,
      "Ġnine": 5586,
      "ĠFried": 5587,
      "ĠÅ": 5588,
      "stan": 5589,
      "ashion": 5590,
      "Ġpeace": 5591,
      "Ġnob": 5592,
      "Ġreally": 5593,
      "rait": 5594,
      "ĠColorado": 5595,
      "No": 5596,
      "ĠLower": 5597,
      "uda": 5598,
      "Ġsplit": 5599,
      "ĠCroat": 5600,
      "Season": 5601,
      "Ñģ": 5602,
      "isa": 5603,
      "ĠKansas": 5604,
      "Ġdistribution": 5605,
      "oli": 5606,
      "Ġexact": 5607,
      "Ġinvolved": 5608,
      "Ġliquid": 5609,
      "ordan": 5610,
      "Ġ1905": 5611,
      "Sing": 5612,
      "Ġdon": 5613,
      "ading": 5614,
      "ĠFly": 5615,
      "ĠMuham": 5616,
      "ingham": 5617,
      "Ġstudies": 5618,
      "Ġwidely": 5619,
      "ĠBridge": 5620,
      "onds": 5621,
      "Ġacid": 5622,
      "ĠMichigan": 5623,
      "Ġmaterials": 5624,
      "rin": 5625,
      "ilities": 5626,
      "ĠLes": 5627,
      "icted": 5628,
      "ĠOrth": 5629,
      "Ġbrand": 5630,
      "Ġrich": 5631,
      "tario": 5632,
      "ÑĢ": 5633,
      "Ġtal": 5634,
      "ĠHug": 5635,
      "ĠDun": 5636,
      "ĠKl": 5637,
      "Ġinvented": 5638,
      "Dec": 5639,
      "ĠAut": 5640,
      "ondiss": 5641,
      "ĠRepublican": 5642,
      "Ġstatus": 5643,
      "Ġlooks": 5644,
      "Ġearthquake": 5645,
      "Ġminister": 5646,
      "ĠMik": 5647,
      "ache": 5648,
      "ĠField": 5649,
      "ĠKey": 5650,
      "Ġwinter": 5651,
      "esota": 5652,
      "orb": 5653,
      "ĠTest": 5654,
      "Ġgraph": 5655,
      "ĠTenn": 5656,
      "antasy": 5657,
      "ĠPhilip": 5658,
      "Ġgods": 5659,
      "Ġhttp": 5660,
      "Ġremains": 5661,
      "ĠRio": 5662,
      "ĠDNA": 5663,
      "ĠAlfred": 5664,
      "IS": 5665,
      "engu": 5666,
      "ĠRoute": 5667,
      "ĠNorm": 5668,
      "ĠOd": 5669,
      "estant": 5670,
      "exual": 5671,
      "kes": 5672,
      "ĠSec": 5673,
      "add": 5674,
      "imated": 5675,
      "hens": 5676,
      "||||||||||": 5677,
      "Ġnick": 5678,
      "Ġ42": 5679,
      "Ġversions": 5680,
      "ĠJosÃ©": 5681,
      "ĠArgentine": 5682,
      "Ġorbit": 5683,
      "ublish": 5684,
      "anning": 5685,
      "Ġopt": 5686,
      "Ġclear": 5687,
      "Ġpicture": 5688,
      "Ġevidence": 5689,
      "ĠPatrick": 5690,
      "ĠBillboard": 5691,
      "ĠHindu": 5692,
      "pite": 5693,
      "Ġreach": 5694,
      "ĠSee": 5695,
      "Ġscientific": 5696,
      "gu": 5697,
      "ĠWolf": 5698,
      "ĠNev": 5699,
      "ĠNavy": 5700,
      "ĠJournal": 5701,
      "ega": 5702,
      "Ġsingles": 5703,
      "Ġcovered": 5704,
      "Ġrecent": 5705,
      "1967": 5706,
      "ĠBrother": 5707,
      "Ġsymbols": 5708,
      "Ġsleep": 5709,
      "icide": 5710,
      "Ġgradu": 5711,
      "apore": 5712,
      "Ġallows": 5713,
      "Ġbusinessman": 5714,
      "CC": 5715,
      "ĠTony": 5716,
      "Ġscreenwriter": 5717,
      "Ġdocument": 5718,
      "Writ": 5719,
      "book": 5720,
      "ĠRen": 5721,
      "Ġclosed": 5722,
      "ĠMemorial": 5723,
      "een": 5724,
      "Ġalt": 5725,
      "Ġran": 5726,
      "Ġparticular": 5727,
      "ĠJupiter": 5728,
      "ĠKer": 5729,
      "Ġflight": 5730,
      "ĠPlan": 5731,
      "feld": 5732,
      "olas": 5733,
      "Ġgiving": 5734,
      "Ġ1904": 5735,
      "\").": 5736,
      "ĠLaur": 5737,
      "Ġrecords": 5738,
      "Ġmerged": 5739,
      "ga": 5740,
      "Ġcam": 5741,
      "ĠSav": 5742,
      "ĠDark": 5743,
      "Ġbroadcast": 5744,
      "oenix": 5745,
      "change": 5746,
      "iÄ": 5747,
      "Ġpick": 5748,
      "ods": 5749,
      "rics": 5750,
      "Ġbasic": 5751,
      "ippi": 5752,
      "ĠBand": 5753,
      "Ġappearance": 5754,
      "Ġmouth": 5755,
      "ĠDanish": 5756,
      "ĠGP": 5757,
      "Ġhistorian": 5758,
      "ĠFrederick": 5759,
      "atform": 5760,
      "aly": 5761,
      "Ġcust": 5762,
      "ĠTai": 5763,
      "ĠDu": 5764,
      "Ġlev": 5765,
      "aily": 5766,
      "ĠEduc": 5767,
      "Ġrail": 5768,
      "Ġ1909": 5769,
      "Ġscientist": 5770,
      "Ġcouncil": 5771,
      "ĠFestival": 5772,
      "ĠStone": 5773,
      "ĠIndividual": 5774,
      "Ġmedicine": 5775,
      "Ġcanton": 5776,
      "rec": 5777,
      "ault": 5778,
      "rupt": 5779,
      "ĠCrit": 5780,
      "ecess": 5781,
      "ĠWat": 5782,
      "Ġbeat": 5783,
      "Ġeyes": 5784,
      "ĠDirector": 5785,
      "oslav": 5786,
      "Ġgeneration": 5787,
      "ĠHungarian": 5788,
      "ĠEncyclopedia": 5789,
      "orph": 5790,
      "ĠCab": 5791,
      "ĠFormula": 5792,
      "ĠChem": 5793,
      "ĠConstitution": 5794,
      "ĠExamples": 5795,
      "vis": 5796,
      "ĠMong": 5797,
      "ĠHawai": 5798,
      "ĠMuhammad": 5799,
      "oring": 5800,
      "ĠRoll": 5801,
      "ĠSever": 5802,
      "ĠWebsite": 5803,
      "ĠBuddh": 5804,
      "Best": 5805,
      "rate": 5806,
      "ouver": 5807,
      "ĠRad": 5808,
      "ĠDynasty": 5809,
      "uls": 5810,
      "Ġ51": 5811,
      "Ġ62": 5812,
      "1968": 5813,
      "Ġbigger": 5814,
      "ĠService": 5815,
      "part": 5816,
      "Ġfurther": 5817,
      "Ġelev": 5818,
      "Ġmoves": 5819,
      "Ġ1903": 5820,
      "Ġalign": 5821,
      "Ġcalcul": 5822,
      "Japanese": 5823,
      "ĠMicrosoft": 5824,
      "ĠPass": 5825,
      "Ġreign": 5826,
      "ashi": 5827,
      "Ġspeech": 5828,
      "ĠPittsburgh": 5829,
      "orough": 5830,
      "ishes": 5831,
      "alle": 5832,
      "ĠFinn": 5833,
      "Ġaltern": 5834,
      "ĠRey": 5835,
      "ĠLibrary": 5836,
      "Ġreasons": 5837,
      "Ġengineer": 5838,
      "Ġawarded": 5839,
      "gal": 5840,
      "Ġhar": 5841,
      "ĠDa": 5842,
      "ĠClark": 5843,
      "Ġcolour": 5844,
      "ĠAndre": 5845,
      "celona": 5846,
      "Ġsail": 5847,
      "Ġ41": 5848,
      "Ġsculpt": 5849,
      "ĠProfess": 5850,
      "Ġthreat": 5851,
      "ĠVideo": 5852,
      "Ġflood": 5853,
      "Ġanti": 5854,
      "ĠKennedy": 5855,
      "ĠHong": 5856,
      "ogen": 5857,
      "Ġelectricity": 5858,
      "ontinental": 5859,
      "uen": 5860,
      "Ãª": 5861,
      "Å«": 5862,
      "ĠPercy": 5863,
      "210": 5864,
      "car": 5865,
      "rates": 5866,
      "edd": 5867,
      "ĠHungary": 5868,
      "uals": 5869,
      "ĠTal": 5870,
      "ĠMarsh": 5871,
      "Ġemploy": 5872,
      "emocr": 5873,
      "Ġworldwide": 5874,
      "Ġhistorical": 5875,
      "ĠHitler": 5876,
      "bro": 5877,
      "pet": 5878,
      "Ġver": 5879,
      "ĪĴ": 5880,
      "Ġpal": 5881,
      "Ġcontract": 5882,
      "ĠCentury": 5883,
      "Ġcomposed": 5884,
      "Ġmarriage": 5885,
      "Ġparticles": 5886,
      "ĠHamilton": 5887,
      "iac": 5888,
      "Ġkingdom": 5889,
      "atabase": 5890,
      "Ġwall": 5891,
      "Ġfeder": 5892,
      "ugby": 5893,
      "ĠChristians": 5894,
      "ĠVienna": 5895,
      "ĠAlexand": 5896,
      "ĠMilan": 5897,
      "ĠSaxony": 5898,
      "Ġcars": 5899,
      "Ġbranch": 5900,
      "ĠTag": 5901,
      "ĠBat": 5902,
      "ĠPap": 5903,
      "ĠSn": 5904,
      "ĠOntario": 5905,
      "Ġdirectly": 5906,
      "Ġpattern": 5907,
      "ĠCru": 5908,
      "Ġemperor": 5909,
      "Ġnormally": 5910,
      "osite": 5911,
      "ĠProduct": 5912,
      "Ġmagazine": 5913,
      "Ġmicro": 5914,
      "ibbean": 5915,
      "ctions": 5916,
      "life": 5917,
      "ĠSab": 5918,
      "Ġnort": 5919,
      "ĠNar": 5920,
      "ĠUt": 5921,
      "Ġcollege": 5922,
      "Ġaccount": 5923,
      "Ġcopies": 5924,
      "ĠArea": 5925,
      "Career": 5926,
      "die": 5927,
      "Ġpictures": 5928,
      "ĠOffice": 5929,
      "ĠChief": 5930,
      "Ġpoliticians": 5931,
      "Ġmanufact": 5932,
      "Rh": 5933,
      "amber": 5934,
      "All": 5935,
      "Coat": 5936,
      "Pr": 5937,
      "tic": 5938,
      "Ġwave": 5939,
      "ĠHom": 5940,
      "Ġloss": 5941,
      "ĠLind": 5942,
      "igue": 5943,
      "izing": 5944,
      "ĠMedia": 5945,
      "ĠAfghanistan": 5946,
      "ji": 5947,
      "ĠPur": 5948,
      "iop": 5949,
      "Ġera": 5950,
      "160": 5951,
      "ando": 5952,
      "Ġhy": 5953,
      "Ġracing": 5954,
      "Ã¼n": 5955,
      "jo": 5956,
      "jab": 5957,
      "mouth": 5958,
      "ĠSem": 5959,
      "Ġexamples": 5960,
      "Ġappo": 5961,
      "Ġorganization": 5962,
      "ĠPalace": 5963,
      "Events": 5964,
      "ĠMinnesota": 5965,
      "ĠNik": 5966,
      "Ġbird": 5967,
      "ĠBangl": 5968,
      "ĠHun": 5969,
      "Ġhero": 5970,
      "Ġreview": 5971,
      "Ġliterature": 5972,
      "down": 5973,
      "eon": 5974,
      "hard": 5975,
      "Ġaff": 5976,
      "Ġbodies": 5977,
      "ĠIN": 5978,
      "iance": 5979,
      "ĠKr": 5980,
      "ĠKings": 5981,
      "ĠBroad": 5982,
      "Ġbottom": 5983,
      "Ġcitizens": 5984,
      "Ġfeed": 5985,
      "Ġmast": 5986,
      "issippi": 5987,
      "Christ": 5988,
      "Ġphysics": 5989,
      "reement": 5990,
      "ĠAth": 5991,
      "Ġupper": 5992,
      "color": 5993,
      "ancouver": 5994,
      "Ġvalley": 5995,
      "Ġrevolution": 5996,
      "zy": 5997,
      "zona": 5998,
      "Ġinit": 5999,
      "ĠTyp": 6000,
      "Ġhands": 6001,
      "CW": 6002,
      "Municipalities": 6003,
      "Ġchampion": 6004,
      "Ġcolumn": 6005,
      "Ġindividual": 6006,
      "km": 6007,
      "Ġsides": 6008,
      "Ġalcoh": 6009,
      "Ġworkers": 6010,
      "Ġfr": 6011,
      "omot": 6012,
      "abad": 6013,
      "medi": 6014,
      "Ġdescribe": 6015,
      "Ġconnected": 6016,
      "ĠMuslims": 6017,
      "Ġcandid": 6018,
      "rm": 6019,
      "ĠÂ°": 6020,
      "orter": 6021,
      "ĠHan": 6022,
      "ĠHealth": 6023,
      "à¤": 6024,
      "erved": 6025,
      "ĠBrian": 6026,
      "ĠRaw": 6027,
      "ĠVis": 6028,
      "ĠPeace": 6029,
      "Ġrefers": 6030,
      "ĠBart": 6031,
      "ĠDate": 6032,
      "allas": 6033,
      "Ġoperating": 6034,
      "ĠApple": 6035,
      "ĠOrthodox": 6036,
      "inth": 6037,
      "ource": 6038,
      "Ġ82": 6039,
      "Ġswim": 6040,
      "ĠCuba": 6041,
      "Ġfix": 6042,
      "igen": 6043,
      "ĠIndependence": 6044,
      "Ġtools": 6045,
      "apes": 6046,
      "Ġchosen": 6047,
      "Ġmuseum": 6048,
      "Ġtreatment": 6049,
      "''": 6050,
      "ĠVI": 6051,
      "ĠColomb": 6052,
      "ĠTerrit": 6053,
      "Canadian": 6054,
      "ĠDog": 6055,
      "Ġroyal": 6056,
      "oka": 6057,
      "orning": 6058,
      "Ġuniverse": 6059,
      "Ġcup": 6060,
      "ĠWelsh": 6061,
      "anges": 6062,
      "Ġlands": 6063,
      "Ġalphabet": 6064,
      "ifying": 6065,
      "ĠAnth": 6066,
      "Ġapplic": 6067,
      "Ġhor": 6068,
      "olt": 6069,
      "iform": 6070,
      "Ġrecording": 6071,
      "Station": 6072,
      "Ġeasy": 6073,
      "AL": 6074,
      "Ġawards": 6075,
      "ĠLat": 6076,
      "fish": 6077,
      "Ä±": 6078,
      "ĠPy": 6079,
      "ĠYour": 6080,
      "Ġprovinces": 6081,
      "Ġrepro": 6082,
      "Ġthousands": 6083,
      "Ġathlete": 6084,
      "Ġlevels": 6085,
      "ighter": 6086,
      "Ġsongwriter": 6087,
      "enez": 6088,
      "ĠSimon": 6089,
      "Ġdrugs": 6090,
      "bus": 6091,
      "ĠMaster": 6092,
      "Ġprec": 6093,
      "Ġmajority": 6094,
      "mund": 6095,
      "ouri": 6096,
      "Ġlake": 6097,
      "ĠKat": 6098,
      "rator": 6099,
      "ĠLewis": 6100,
      "Ġvo": 6101,
      "240": 6102,
      "ĠBrad": 6103,
      "anz": 6104,
      "ĠMand": 6105,
      "Ġshare": 6106,
      "Ã©t": 6107,
      "1966": 6108,
      "Star": 6109,
      "Ġburied": 6110,
      "vo": 6111,
      "ĠDVD": 6112,
      "ĠSingapore": 6113,
      "sky": 6114,
      "Ġinsp": 6115,
      "ĠGulf": 6116,
      "ĠChannel": 6117,
      "Ġ1890": 6118,
      "ĠHarv": 6119,
      "Ġdouble": 6120,
      "ĠHeb": 6121,
      "Ġattacked": 6122,
      "Ġcompletely": 6123,
      "ÅĤ": 6124,
      "Ġiron": 6125,
      "Ġ53": 6126,
      "ptoms": 6127,
      "Ġ1902": 6128,
      "anded": 6129,
      "ĠAlan": 6130,
      "ĠEgyptian": 6131,
      "Ġofficer": 6132,
      "ĠTreaty": 6133,
      "iting": 6134,
      "ĠSky": 6135,
      "ĠRub": 6136,
      "Ġatm": 6137,
      "Ġprof": 6138,
      "ailand": 6139,
      "Ġsolid": 6140,
      "rac": 6141,
      "ĠMaur": 6142,
      "ĠThird": 6143,
      "Ġ85": 6144,
      "Ġchampions": 6145,
      "ĠSilver": 6146,
      "Ġhydrogen": 6147,
      "oro": 6148,
      "Ġachie": 6149,
      "ĠAdam": 6150,
      "Ġsounds": 6151,
      "Ġregard": 6152,
      "He": 6153,
      "ĠFore": 6154,
      "ĠFinal": 6155,
      "agh": 6156,
      "Ġcollection": 6157,
      "ĠAdminist": 6158,
      "Ġsaying": 6159,
      "Ġcaptured": 6160,
      "IV": 6161,
      "ĠRailway": 6162,
      "eman": 6163,
      "Ġrat": 6164,
      "Ġflows": 6165,
      "Ġinterview": 6166,
      "ĠSingles": 6167,
      "wig": 6168,
      "Ġ46": 6169,
      "keep": 6170,
      "ĠBeach": 6171,
      "ĠPaulo": 6172,
      "April": 6173,
      "ĠHead": 6174,
      "Ġprogramming": 6175,
      "Ġdeterm": 6176,
      "ĠCommunity": 6177,
      "CD": 6178,
      "rus": 6179,
      "ĠCreek": 6180,
      "Ġatoms": 6181,
      "ĠYears": 6182,
      "Ġsense": 6183,
      "Ġhuge": 6184,
      "Ġstone": 6185,
      "Ġdirection": 6186,
      "Ġpianist": 6187,
      "Ġpron": 6188,
      "ĠMagn": 6189,
      "ĠBurn": 6190,
      "ĠNiger": 6191,
      "ĠCarter": 6192,
      "ĠNich": 6193,
      "Ã©e": 6194,
      "Ġprint": 6195,
      "ĠFinland": 6196,
      "see": 6197,
      "ĠPrinc": 6198,
      "Ġsky": 6199,
      "ĠDor": 6200,
      "standing": 6201,
      "ĠMunich": 6202,
      "Ġcerem": 6203,
      "ĠCapt": 6204,
      "Ġ43": 6205,
      "Ġserious": 6206,
      "Ġcounties": 6207,
      "Ġappl": 6208,
      "Ġfifth": 6209,
      ")\"": 6210,
      "isp": 6211,
      "ĠWarner": 6212,
      "Ġstore": 6213,
      "Ġpercent": 6214,
      "ĠCold": 6215,
      "ĠTra": 6216,
      "ĠNetwork": 6217,
      "ĠHeavy": 6218,
      "Ġpractice": 6219,
      "called": 6220,
      "Ġwatch": 6221,
      "Ġmission": 6222,
      "antic": 6223,
      "Ġparties": 6224,
      "Ġ65": 6225,
      "Ġlisted": 6226,
      "Ġlooking": 6227,
      "Ġlaunched": 6228,
      "ĠRA": 6229,
      "aco": 6230,
      "ĠOp": 6231,
      "Ġcompounds": 6232,
      "ĠMars": 6233,
      "Ġgrowth": 6234,
      "ĠDominican": 6235,
      "ye": 6236,
      "istant": 6237,
      "ĠStock": 6238,
      "ausen": 6239,
      "ĠOnline": 6240,
      "ĠArmenia": 6241,
      "hib": 6242,
      "Ġlif": 6243,
      "Ġconfl": 6244,
      "Ġnickn": 6245,
      "aled": 6246,
      "Ġmom": 6247,
      "ĠWrit": 6248,
      "Ġpoll": 6249,
      "imself": 6250,
      "En": 6251,
      "don": 6252,
      "Ġcrick": 6253,
      "Ġdevice": 6254,
      "sk": 6255,
      "Ġfuel": 6256,
      "ĠFe": 6257,
      "Ġdegree": 6258,
      "inem": 6259,
      "ori": 6260,
      "âĢĶâĢĶâĢĶâĢĶâĢĶ": 6261,
      "Å¡": 6262,
      "ĠSÃ£o": 6263,
      "enge": 6264,
      "ĠPas": 6265,
      "ĠWalk": 6266,
      "resh": 6267,
      "aceae": 6268,
      "Ġ1899": 6269,
      "Ġsac": 6270,
      "Ġpowers": 6271,
      "Ġsouthwest": 6272,
      "ĠPersian": 6273,
      "Ġque": 6274,
      "Ġnumer": 6275,
      "opes": 6276,
      "Ġreve": 6277,
      "enberg": 6278,
      "Ġinte": 6279,
      "ĠKaz": 6280,
      "oeing": 6281,
      "Ġmemory": 6282,
      "ĠGabri": 6283,
      "Ġsignificant": 6284,
      "Ġlocation": 6285,
      "ĠJordan": 6286,
      "Ġveget": 6287,
      "ĠLev": 6288,
      "Ġmilk": 6289,
      "Ġmotor": 6290,
      "ĠGord": 6291,
      "arters": 6292,
      "Ġspirit": 6293,
      "ĠCaribbean": 6294,
      "Ġgrowing": 6295,
      "Ġdiscuss": 6296,
      "Ġuniversities": 6297,
      "oes": 6298,
      "Ġbought": 6299,
      "Ġrate": 6300,
      "ĠResearch": 6301,
      "Ġsources": 6302,
      "from": 6303,
      "Ġille": 6304,
      "Ġpull": 6305,
      "ados": 6306,
      "raight": 6307,
      "ĠDictionary": 6308,
      "Ġ47": 6309,
      "celand": 6310,
      "ĠGrammy": 6311,
      "CO": 6312,
      "ĠMississippi": 6313,
      "El": 6314,
      "aron": 6315,
      "ĠHeart": 6316,
      "Ġclassical": 6317,
      "Ġopening": 6318,
      "ĠRoger": 6319,
      "haw": 6320,
      "arily": 6321,
      "Ġrac": 6322,
      "Ġnearby": 6323,
      "Ġbegin": 6324,
      "Ġmixed": 6325,
      "ĠPeru": 6326,
      "anna": 6327,
      "Ġinstrument": 6328,
      "Ġcontrolled": 6329,
      "World": 6330,
      "Ġvert": 6331,
      "atures": 6332,
      "ĠHamp": 6333,
      "ĠYam": 6334,
      "Ġability": 6335,
      "Ġadult": 6336,
      "Ġcool": 6337,
      "Ġlabel": 6338,
      "Ġdan": 6339,
      "Ġste": 6340,
      "active": 6341,
      "Ġgrav": 6342,
      "Ġclean": 6343,
      "ÑĤ": 6344,
      "Ġwrong": 6345,
      "ĠCass": 6346,
      "Ġfolk": 6347,
      "ĠRud": 6348,
      "stad": 6349,
      "Ġ1895": 6350,
      "ĠUkraine": 6351,
      "ĠBlues": 6352,
      "Ġglass": 6353,
      "Ġexecutive": 6354,
      "mitted": 6355,
      "heastern": 6356,
      "Ġsens": 6357,
      "usp": 6358,
      "essee": 6359,
      "Ġyet": 6360,
      "AR": 6361,
      "ĠVers": 6362,
      "Ġ49": 6363,
      "Am": 6364,
      "Ġexc": 6365,
      "ucky": 6366,
      "ĠSalv": 6367,
      "Ġax": 6368,
      "Ġpack": 6369,
      "ĠTen": 6370,
      "Ġdrive": 6371,
      "ĠTheatre": 6372,
      "ieval": 6373,
      "ĠSupport": 6374,
      "Ġlegs": 6375,
      "ĠSamuel": 6376,
      "ĠPierre": 6377,
      "',": 6378,
      "ĠBos": 6379,
      "Ġroll": 6380,
      "Ġgrass": 6381,
      "cles": 6382,
      "Ġcategory": 6383,
      "asia": 6384,
      "ĠBull": 6385,
      "iab": 6386,
      "Ġnote": 6387,
      "Ġnewspaper": 6388,
      "oles": 6389,
      "1965": 6390,
      "ĠDead": 6391,
      "iques": 6392,
      "Ġraised": 6393,
      "Ġwants": 6394,
      "ĠBavaria": 6395,
      "Ġleaving": 6396,
      "Ġunknown": 6397,
      "ĠShort": 6398,
      "insula": 6399,
      "Ġcommunes": 6400,
      "ĠKashmir": 6401,
      "ĠExt": 6402,
      "Ġdeclared": 6403,
      "evin": 6404,
      "Ġcontrib": 6405,
      "atherine": 6406,
      "ĠMountain": 6407,
      "lets": 6408,
      "olph": 6409,
      "ĠRose": 6410,
      "otte": 6411,
      "Ġquant": 6412,
      "ĠChristopher": 6413,
      "Ġknowledge": 6414,
      "Ġobserv": 6415,
      "ublishing": 6416,
      "ctic": 6417,
      "ĠBrook": 6418,
      "Ġactivity": 6419,
      "Ġopposite": 6420,
      "Ġchurches": 6421,
      "Ġphilosophy": 6422,
      "ĠTaiwan": 6423,
      "Nov": 6424,
      "San": 6425,
      "Ġsection": 6426,
      "ĠManu": 6427,
      "Ġlongest": 6428,
      "ĠCathedral": 6429,
      "ĠAntonio": 6430,
      "MS": 6431,
      "kh": 6432,
      "Ġess": 6433,
      "2021": 6434,
      "ĠChampion": 6435,
      "Ġcommercial": 6436,
      "alty": 6437,
      "ĠMountains": 6438,
      "Ad": 6439,
      "Video": 6440,
      "Ġsure": 6441,
      "Ġhyp": 6442,
      "ĠStation": 6443,
      "Ġrocks": 6444,
      "Ġcarried": 6445,
      "ĠEducation": 6446,
      "aska": 6447,
      "ugoslav": 6448,
      "ymn": 6449,
      "edic": 6450,
      "ĠCurrent": 6451,
      "Ġbrown": 6452,
      "Ġ130": 6453,
      "ĠSS": 6454,
      "ĠMoh": 6455,
      "ĠLib": 6456,
      "ĠFair": 6457,
      "elli": 6458,
      "ĠPlatinum": 6459,
      "net": 6460,
      "trans": 6461,
      "ĠImp": 6462,
      "ĠAges": 6463,
      "ourney": 6464,
      "hyl": 6465,
      "Ġagreed": 6466,
      "Spanish": 6467,
      "Ã´ne": 6468,
      "Ġfans": 6469,
      "ĠArena": 6470,
      "1964": 6471,
      "Ã¶n": 6472,
      "ĠQueens": 6473,
      "ĠNapole": 6474,
      "ders": 6475,
      "Ġhorse": 6476,
      "omp": 6477,
      "ĠBruce": 6478,
      "based": 6479,
      "ĠMach": 6480,
      "Ġprote": 6481,
      "ĠSolar": 6482,
      "Ġfair": 6483,
      "Ġmention": 6484,
      "ĠMill": 6485,
      "elson": 6486,
      "Ġacadem": 6487,
      "Ġneut": 6488,
      "joy": 6489,
      "ety": 6490,
      "ĠIsraeli": 6491,
      "Ġassociated": 6492,
      "Ġpaid": 6493,
      "ĠRain": 6494,
      "Ġabs": 6495,
      "pped": 6496,
      "iverpool": 6497,
      "ĠDonald": 6498,
      "ĠDNQ": 6499,
      "ging": 6500,
      "Ġsell": 6501,
      "ĠMess": 6502,
      "Ġgre": 6503,
      "Ġeveryone": 6504,
      "ĠMelbourne": 6505,
      "Ġsnow": 6506,
      "rell": 6507,
      "ronze": 6508,
      "Ġstudent": 6509,
      "ĠObs": 6510,
      "ĠOsaka": 6511,
      "ĠEver": 6512,
      "apers": 6513,
      "Ġconcent": 6514,
      "uki": 6515,
      "Ġurban": 6516,
      "Ġtaught": 6517,
      "ĠDick": 6518,
      "Down": 6519,
      "ĠHait": 6520,
      "ĠArn": 6521,
      "rief": 6522,
      "Ġcomic": 6523,
      "Ġbackground": 6524,
      "170": 6525,
      "town": 6526,
      "Ġbaby": 6527,
      "190": 6528,
      "ĠVancouver": 6529,
      "Ġchall": 6530,
      "Port": 6531,
      "Ġhospital": 6532,
      "ĠLyn": 6533,
      "irty": 6534,
      "Ġpresidential": 6535,
      "ĠFoundation": 6536,
      "ao": 6537,
      "ĠBou": 6538,
      "ante": 6539,
      "Ġfounder": 6540,
      "Ġfeatured": 6541,
      "uerto": 6542,
      "Nominated": 6543,
      "Ġmeat": 6544,
      "Ġtraining": 6545,
      "irds": 6546,
      "ĠQuebec": 6547,
      "onse": 6548,
      "Ġsen": 6549,
      "ĠNative": 6550,
      "issance": 6551,
      "ĠWings": 6552,
      "umin": 6553,
      "illes": 6554,
      "ibility": 6555,
      "Ġconsist": 6556,
      "Ġextra": 6557,
      "Ġdifference": 6558,
      "Ġconstruction": 6559,
      "do": 6560,
      "ĠNi": 6561,
      "Ġforest": 6562,
      "hyth": 6563,
      "Ġissues": 6564,
      "ĠTennessee": 6565,
      "Ġparliament": 6566,
      "lem": 6567,
      "And": 6568,
      "Ġbound": 6569,
      "ĠPed": 6570,
      "1930": 6571,
      "Ġans": 6572,
      "oves": 6573,
      "ĠTrin": 6574,
      "ĠPunjab": 6575,
      "Ġfaster": 6576,
      "ifer": 6577,
      "Ġuseful": 6578,
      "Ġshell": 6579,
      "Ġsolar": 6580,
      "ĠToy": 6581,
      "road": 6582,
      "Ġprovide": 6583,
      "Ġoccurs": 6584,
      "lan": 6585,
      "Ġtournament": 6586,
      "Ġbul": 6587,
      "Club": 6588,
      "Ġterritories": 6589,
      "Ġdangerous": 6590,
      "Ġfederal": 6591,
      "Ġconcept": 6592,
      "unda": 6593,
      "ĠAli": 6594,
      "Ġacting": 6595,
      "ĠReal": 6596,
      "Ġremained": 6597,
      "helm": 6598,
      "Gold": 6599,
      "Ġsets": 6600,
      "Ġmammals": 6601,
      "Ġthick": 6602,
      "Ġcoming": 6603,
      "anged": 6604,
      "ĠAbd": 6605,
      "Ġexplos": 6606,
      "Ġcultural": 6607,
      "ĠSound": 6608,
      "ĠIceland": 6609,
      "October": 6610,
      "where": 6611,
      "ĠHiro": 6612,
      "Ġteeth": 6613,
      "Ã©n": 6614,
      "ĠDevelop": 6615,
      "Writers": 6616,
      "ĠIvan": 6617,
      "Ġfeature": 6618,
      "Ġlearned": 6619,
      "Ġbeautiful": 6620,
      "ĠPersonal": 6621,
      "gl": 6622,
      "Ġbatt": 6623,
      "Ġmedal": 6624,
      "Ġbiology": 6625,
      "Ġ110": 6626,
      "Ġsolo": 6627,
      "We": 6628,
      "gers": 6629,
      "etition": 6630,
      "Ġgun": 6631,
      "akers": 6632,
      "ĠCentre": 6633,
      "ancell": 6634,
      "ĠFlorence": 6635,
      "ĠWhit": 6636,
      "Ġproperty": 6637,
      "SeasonLeague": 6638,
      "bo": 6639,
      "zen": 6640,
      "ĠCook": 6641,
      "rif": 6642,
      "chi": 6643,
      "onsin": 6644,
      "Ġ1896": 6645,
      "Ġparticip": 6646,
      "Ġearliest": 6647,
      "Ġeye": 6648,
      "oir": 6649,
      "ĠCommittee": 6650,
      "ĠGlobe": 6651,
      "ĠPhoenix": 6652,
      "offs": 6653,
      "Ġinsects": 6654,
      "OR": 6655,
      "ĠÎ": 6656,
      "imately": 6657,
      "ĠIndust": 6658,
      "Ġsinging": 6659,
      "ĠContin": 6660,
      "ĠFerrari": 6661,
      "July": 6662,
      "Af": 6663,
      "esar": 6664,
      "Ġborders": 6665,
      "ĠTurn": 6666,
      "ĠGard": 6667,
      "ĠStew": 6668,
      "rops": 6669,
      "Ġbuy": 6670,
      "Ġ1898": 6671,
      "ĠSon": 6672,
      "ĠSud": 6673,
      "Ġ72": 6674,
      "Ġincreased": 6675,
      "Ġadopted": 6676,
      "ĠFall": 6677,
      "onda": 6678,
      "isconsin": 6679,
      "Television": 6680,
      "AS": 6681,
      "elve": 6682,
      "Ġtwice": 6683,
      "Ġincrease": 6684,
      "Ġnucle": 6685,
      "ĠLith": 6686,
      "htm": 6687,
      "anny": 6688,
      "former": 6689,
      "ĠJerry": 6690,
      "Ġindustrial": 6691,
      "Ġexecuted": 6692,
      "ĠPhilippines": 6693,
      "Ġthrone": 6694,
      "ui": 6695,
      "Ġbright": 6696,
      "Ġflower": 6697,
      "ĠConnect": 6698,
      "ĠPalest": 6699,
      "Ġapart": 6700,
      "Ġaccepted": 6701,
      ":#": 6702,
      "Ġpeak": 6703,
      "Ġnominated": 6704,
      "Ġheight": 6705,
      "Ġ55": 6706,
      "ĠHoward": 6707,
      "Ġcompleted": 6708,
      "mit": 6709,
      "Ġcrown": 6710,
      "Ġgrown": 6711,
      "Ġunc": 6712,
      "Ġunion": 6713,
      "Ġclassification": 6714,
      "Ġruler": 6715,
      "ĠUlt": 6716,
      "Ġbow": 6717,
      "imum": 6718,
      "Ġinfluenced": 6719,
      "ĠSenate": 6720,
      "Ġvictory": 6721,
      "ĠArizona": 6722,
      "Bas": 6723,
      "ining": 6724,
      "Ġtheor": 6725,
      "Ġsearch": 6726,
      "ĠVlad": 6727,
      "inea": 6728,
      "wealth": 6729,
      "Ġlawyer": 6730,
      "NY": 6731,
      "ĠBuild": 6732,
      "Ġfort": 6733,
      "Ġchrom": 6734,
      "ĠSquare": 6735,
      "ĠBangladesh": 6736,
      "Ġwaves": 6737,
      "ĠSix": 6738,
      "ĠMes": 6739,
      "Ġ52": 6740,
      "ĠProject": 6741,
      "Ġpositions": 6742,
      "ĠMoz": 6743,
      "ooth": 6744,
      "Ġ1897": 6745,
      "ĠDavis": 6746,
      "On": 6747,
      "usal": 6748,
      "ĠRing": 6749,
      "ĠLiter": 6750,
      "ĠRobinson": 6751,
      "1000": 6752,
      "310": 6753,
      "Ġft": 6754,
      "ĠArts": 6755,
      "ultural": 6756,
      "phalia": 6757,
      "Ġfund": 6758,
      "ĠBundesliga": 6759,
      "ĠEric": 6760,
      "Ġconstitution": 6761,
      "Ġdebut": 6762,
      "Ġbacteria": 6763,
      "mes": 6764,
      "wright": 6765,
      "ĠDS": 6766,
      "Ġempire": 6767,
      "Ġextrem": 6768,
      "Ġwrestling": 6769,
      "Ġlimited": 6770,
      "Em": 6771,
      "father": 6772,
      "Ġworship": 6773,
      "ĠCape": 6774,
      "Ġweak": 6775,
      "Ġmeters": 6776,
      "Ġplanets": 6777,
      "Ð¾Ð": 6778,
      "ĠGreg": 6779,
      "Ġcondition": 6780,
      "Ġradiation": 6781,
      "August": 6782,
      "Reg": 6783,
      "ĠInformation": 6784,
      "uper": 6785,
      "ĠZe": 6786,
      "ĠSite": 6787,
      "ipment": 6788,
      "Ġanything": 6789,
      "Ġenter": 6790,
      "Ġfailure": 6791,
      "Ph": 6792,
      "Ġtries": 6793,
      "Ġwinds": 6794,
      "Ġdinosaur": 6795,
      "ĠNY": 6796,
      "ĠMayor": 6797,
      "ĠAdvent": 6798,
      "ĠUpper": 6799,
      "audi": 6800,
      "Ġsugar": 6801,
      "uty": 6802,
      "aware": 6803,
      "ancing": 6804,
      "France": 6805,
      "Ġtouch": 6806,
      "ĠTar": 6807,
      "okoh": 6808,
      "Ġcompared": 6809,
      "ĠMarie": 6810,
      "Ġ1889": 6811,
      "ĠAgain": 6812,
      "ĠProductions": 6813,
      "EL": 6814,
      "rast": 6815,
      "okohama": 6816,
      "Ġuser": 6817,
      "oyd": 6818,
      "background": 6819,
      "Pal": 6820,
      "lements": 6821,
      "ĠPic": 6822,
      "otic": 6823,
      "ĠJenn": 6824,
      "berry": 6825,
      "ellite": 6826,
      "Ã¨re": 6827,
      "Ġinventor": 6828,
      "Ġliked": 6829,
      "ĠJimmy": 6830,
      "Ġelectrons": 6831,
      "iÄĩ": 6832,
      "uf": 6833,
      "Ġsick": 6834,
      "ĠLeb": 6835,
      "ĠJam": 6836,
      "ibet": 6837,
      "Ġcycle": 6838,
      "related": 6839,
      "Lar": 6840,
      "leph": 6841,
      "eva": 6842,
      "iley": 6843,
      "Ġactivities": 6844,
      "ĠWisconsin": 6845,
      "sea": 6846,
      "Ġassociation": 6847,
      "ivisions": 6848,
      "Ġbridge": 6849,
      "Ġ76": 6850,
      "ĠShah": 6851,
      "Ġentertain": 6852,
      "Ġorganizations": 6853,
      "Ġhonor": 6854,
      "ĠOrigin": 6855,
      "inner": 6856,
      "Ġpolitics": 6857,
      "ĠFormer": 6858,
      "Ġrelat": 6859,
      "Ġsupp": 6860,
      "Ġprimary": 6861,
      "ĠEston": 6862,
      "Ġwhom": 6863,
      "ogy": 6864,
      "anging": 6865,
      "rence": 6866,
      "ĠChildren": 6867,
      "Ġprime": 6868,
      "Ġfictional": 6869,
      "ĠPengu": 6870,
      "ĠIl": 6871,
      "osm": 6872,
      "sequ": 6873,
      "Ġcopy": 6874,
      "Ġstayed": 6875,
      "ĠMPs": 6876,
      "Ġquestion": 6877,
      "AC": 6878,
      "Ġsoil": 6879,
      "Ġflowers": 6880,
      "ĠGuy": 6881,
      "ĠJacob": 6882,
      "ĠConservative": 6883,
      "Ġstrength": 6884,
      "hing": 6885,
      "law": 6886,
      "tes": 6887,
      "ĠPicture": 6888,
      "ĠFel": 6889,
      "Ġcontinue": 6890,
      "bul": 6891,
      "Ùħ": 6892,
      "Ġfashion": 6893,
      "uble": 6894,
      "ĠMerc": 6895,
      "February": 6896,
      "border": 6897,
      "ners": 6898,
      "ĠLuther": 6899,
      "Ġrot": 6900,
      "ĠForest": 6901,
      "Ġeverything": 6902,
      "porary": 6903,
      "Ġholds": 6904,
      "ĠLinux": 6905,
      "EE": 6906,
      "Ä«": 6907,
      "Ġdoll": 6908,
      "ĠPuerto": 6909,
      "Ġcreation": 6910,
      "ĠMalays": 6911,
      "September": 6912,
      "ĠLet": 6913,
      "ruth": 6914,
      "letic": 6915,
      "IM": 6916,
      "Ġlic": 6917,
      "style": 6918,
      "Ġgovernor": 6919,
      "Ġcorrect": 6920,
      "Ġelse": 6921,
      "sm": 6922,
      "Ġir": 6923,
      "ĠCall": 6924,
      "ĠAle": 6925,
      "Ġplatform": 6926,
      "Ġ78": 6927,
      "Ġevil": 6928,
      "idden": 6929,
      "Ġterror": 6930,
      "poration": 6931,
      "Ġtribes": 6932,
      "ĠDouglas": 6933,
      "Australian": 6934,
      "olved": 6935,
      "ĠMargar": 6936,
      "Ġarts": 6937,
      "350": 6938,
      "Rep": 6939,
      "ĠCher": 6940,
      "Ġredu": 6941,
      "ĠIndiana": 6942,
      "ĠMetropolitan": 6943,
      "Olymp": 6944,
      "Ġsav": 6945,
      "Ġmind": 6946,
      "ranean": 6947,
      "ĠEvolution": 6948,
      "ĠAnthony": 6949,
      "Ã¦": 6950,
      "roc": 6951,
      "aza": 6952,
      "Ġfinally": 6953,
      "iner": 6954,
      "Ġpup": 6955,
      "Ġ250": 6956,
      "mera": 6957,
      "ession": 6958,
      "ubb": 6959,
      "ĠRelig": 6960,
      "Ġdepression": 6961,
      "ĠMissouri": 6962,
      "yles": 6963,
      "Ġonto": 6964,
      "ightly": 6965,
      "Ġcausing": 6966,
      "atur": 6967,
      "Ġfat": 6968,
      "Ġforests": 6969,
      "Ġchief": 6970,
      "ultan": 6971,
      "Ġpoison": 6972,
      "Ġalcohol": 6973,
      "RC": 6974,
      "wald": 6975,
      "Ġben": 6976,
      "ĠReb": 6977,
      "Ġplanned": 6978,
      "ĠAlaska": 6979,
      "ĠGuide": 6980,
      "Ġentered": 6981,
      "Ġtrial": 6982,
      "ĠUsually": 6983,
      "ĠSurv": 6984,
      "Ġarchitecture": 6985,
      "Ġsusp": 6986,
      "eline": 6987,
      "iday": 6988,
      "igr": 6989,
      "Ġvariety": 6990,
      "Ġexperience": 6991,
      "Ġrenamed": 6992,
      "ĠMongol": 6993,
      "xide": 6994,
      "sters": 6995,
      "ĠDeb": 6996,
      "ĠSunday": 6997,
      "ĠIndonesia": 6998,
      "ho": 6999,
      "orst": 7000,
      "Ġmist": 7001,
      "ĠBry": 7002,
      "etics": 7003,
      "engers": 7004,
      "Ġclaimed": 7005,
      "Ġmos": 7006,
      "ĠRun": 7007,
      "irates": 7008,
      "Ġ1880": 7009,
      "ĠYugoslav": 7010,
      "assic": 7011,
      "Ġroute": 7012,
      "1963": 7013,
      "Ġtransfer": 7014,
      "Ġmathematics": 7015,
      "Ġillust": 7016,
      "ĠBruins": 7017,
      "Ġhits": 7018,
      "ĠHand": 7019,
      "ĠFront": 7020,
      "ĠDig": 7021,
      "uclear": 7022,
      "ĠInstead": 7023,
      "ĠCre": 7024,
      "ĠMans": 7025,
      "ĠBarcelona": 7026,
      "Ġchemist": 7027,
      "Ġsymptoms": 7028,
      "History": 7029,
      "Ġtarg": 7030,
      "iden": 7031,
      "aste": 7032,
      "Ġseem": 7033,
      "ĠAnna": 7034,
      "Black": 7035,
      "Ġsuicide": 7036,
      "Ġcred": 7037,
      "asaki": 7038,
      "ĠRole": 7039,
      "1950": 7040,
      "Ġusers": 7041,
      "leveland": 7042,
      "Ġarrested": 7043,
      "ĠKal": 7044,
      "Ġassass": 7045,
      "oria": 7046,
      "ĠBoeing": 7047,
      "Ġclothing": 7048,
      "Ġappearances": 7049,
      "ÃŃn": 7050,
      "ĠFederation": 7051,
      "oly": 7052,
      "ĠHere": 7053,
      "Ġ1800": 7054,
      "Ġrecognized": 7055,
      "Ġsecurity": 7056,
      "Musicians": 7057,
      "sch": 7058,
      "onc": 7059,
      "Ġaster": 7060,
      "Ġdates": 7061,
      "Ġhors": 7062,
      "ĠWag": 7063,
      "Ġteach": 7064,
      "ĠOrchestra": 7065,
      "Ġmethods": 7066,
      "Ġslowly": 7067,
      "vest": 7068,
      "Ġsalt": 7069,
      "ĠEsp": 7070,
      "isters": 7071,
      "ĠInf": 7072,
      "ĠStars": 7073,
      "ugs": 7074,
      "raham": 7075,
      "achi": 7076,
      "ailed": 7077,
      "Ġ1892": 7078,
      "Ġkeyboard": 7079,
      "ĠCO": 7080,
      "ĠHell": 7081,
      "tha": 7082,
      "ĠKevin": 7083,
      "essed": 7084,
      "Ġheard": 7085,
      "ĠComedy": 7086,
      "ĠHollywood": 7087,
      "Ġhurt": 7088,
      "omm": 7089,
      "ĠIron": 7090,
      "igi": 7091,
      "tery": 7092,
      "ĠThailand": 7093,
      "get": 7094,
      "itis": 7095,
      "Ġpath": 7096,
      "iments": 7097,
      "Ġrare": 7098,
      "ĠVik": 7099,
      "Ġ54": 7100,
      "Ġdisplay": 7101,
      "Ġlocomot": 7102,
      "Ġpositive": 7103,
      "Ġmolecules": 7104,
      "ĠBuffalo": 7105,
      "Ed": 7106,
      "ĠRaj": 7107,
      "ĠLas": 7108,
      "rik": 7109,
      "Ġ400": 7110,
      "Ġteen": 7111,
      "Ġbroke": 7112,
      "mphony": 7113,
      "Ġsand": 7114,
      "ĠCer": 7115,
      "ĠHeritage": 7116,
      "Ġdiscovery": 7117,
      "ĠCarlos": 7118,
      "ĠFriedrich": 7119,
      "Bar": 7120,
      "ĠHunt": 7121,
      "ĠVoice": 7122,
      "ĠStudios": 7123,
      "ĠAllen": 7124,
      "Ġdiseases": 7125,
      "ĠStewart": 7126,
      "ban": 7127,
      "rine": 7128,
      "ĠFurther": 7129,
      "aked": 7130,
      "Ġgenetic": 7131,
      "ĠLibert": 7132,
      "Ġpoly": 7133,
      "Ġenjoy": 7134,
      "ĠByz": 7135,
      "Ġfields": 7136,
      "Ġbehavior": 7137,
      "Ġdancer": 7138,
      "burn": 7139,
      "ĠØ": 7140,
      "onian": 7141,
      "Ġmut": 7142,
      "Ġhop": 7143,
      "Ġcoal": 7144,
      "Ġpersonality": 7145,
      "Commun": 7146,
      "Ġdeliver": 7147,
      "Ġeasier": 7148,
      "Ġfossil": 7149,
      "Ġmoons": 7150,
      "uri": 7151,
      "ĠHein": 7152,
      "ĠLud": 7153,
      "Ġpregn": 7154,
      "iterranean": 7155,
      "Ġmeeting": 7156,
      "Ġyounger": 7157,
      "cop": 7158,
      "ees": 7159,
      "jamin": 7160,
      "ĠBeng": 7161,
      "antin": 7162,
      "onder": 7163,
      "ĠGuard": 7164,
      "ancial": 7165,
      "Ġcontrovers": 7166,
      "Ġseparated": 7167,
      "Scott": 7168,
      "Ġadministrative": 7169,
      "ĠFinnish": 7170,
      "ĠCaptain": 7171,
      "Ġminist": 7172,
      "imir": 7173,
      "||||||||||||||||": 7174,
      "ivisie": 7175,
      "ĠProtestant": 7176,
      "Ġpurpose": 7177,
      "elligence": 7178,
      "leges": 7179,
      "aging": 7180,
      "Ġvotes": 7181,
      "Ġconcer": 7182,
      "Ġconstant": 7183,
      "ĠJustice": 7184,
      "otion": 7185,
      "imore": 7186,
      "uto": 7187,
      "Ġtail": 7188,
      "Ġ112": 7189,
      "Ġdiam": 7190,
      "iling": 7191,
      "redivisie": 7192,
      "Ġpaintings": 7193,
      "Ġethnic": 7194,
      "320": 7195,
      "ĠLux": 7196,
      "oda": 7197,
      "ĠJohnny": 7198,
      "ĠLouisiana": 7199,
      "December": 7200,
      "enezuel": 7201,
      "Ġatmosphere": 7202,
      "ĠTob": 7203,
      "Ġstraight": 7204,
      "Ġitems": 7205,
      "ĠClin": 7206,
      "Ġstring": 7207,
      "Ġparticularly": 7208,
      "ĠCamer": 7209,
      "ĠBeatles": 7210,
      "BN": 7211,
      "Ġdensity": 7212,
      "Ġkid": 7213,
      "quarters": 7214,
      "Ġestimated": 7215,
      "ĠMonte": 7216,
      "Ġmoment": 7217,
      "Par": 7218,
      "Ġplate": 7219,
      "ĠLeaf": 7220,
      "atern": 7221,
      "âĢĿ.": 7222,
      "Ġconfir": 7223,
      "ĠMatthew": 7224,
      "top": 7225,
      "ening": 7226,
      "Ġscript": 7227,
      "Ġadvent": 7228,
      "Ġlooked": 7229,
      "Ġfailed": 7230,
      "iser": 7231,
      "room": 7232,
      "Ġjobs": 7233,
      "Politicians": 7234,
      "aden": 7235,
      "ĠOrange": 7236,
      "Ġsucceed": 7237,
      "Ġequipment": 7238,
      "ĠAssembly": 7239,
      "Ġengineering": 7240,
      "ĠCapital": 7241,
      "Ġhall": 7242,
      "ĠFern": 7243,
      "Ġalone": 7244,
      "ĠRussell": 7245,
      "Ġastronomer": 7246,
      "ĠSeven": 7247,
      "anced": 7248,
      "ĠNash": 7249,
      "||||||": 7250,
      "Ġdeclar": 7251,
      "Ġillegal": 7252,
      "Ex": 7253,
      "June": 7254,
      "ĠGener": 7255,
      "ĠPerformance": 7256,
      "ecutive": 7257,
      "Ġescape": 7258,
      "Ġresponsible": 7259,
      "inian": 7260,
      "Ġsites": 7261,
      "ĠHu": 7262,
      "Ġlung": 7263,
      "ĠDallas": 7264,
      "Ġstream": 7265,
      "Ġagree": 7266,
      "Ġcolony": 7267,
      "ĠRomans": 7268,
      "link": 7269,
      "mi": 7270,
      "orge": 7271,
      "Ġarticles": 7272,
      "1962": 7273,
      "ĠMedicine": 7274,
      "ĠArabic": 7275,
      "As": 7276,
      "ËĲ": 7277,
      "ĠMean": 7278,
      "ĠArk": 7279,
      "inder": 7280,
      "Ġapprox": 7281,
      "ĠSeveral": 7282,
      "TS": 7283,
      "bell": 7284,
      "Ġstreet": 7285,
      "comp": 7286,
      "Mon": 7287,
      "Ġconserv": 7288,
      "Ġaddress": 7289,
      "ĠEvents": 7290,
      "wall": 7291,
      "arus": 7292,
      "Ġwalls": 7293,
      "Ġcards": 7294,
      "ĠNorman": 7295,
      "Ġphysician": 7296,
      "Ġproperties": 7297,
      "Ġdogs": 7298,
      "YearAppsGoals": 7299,
      "Ġfell": 7300,
      "ĠMunicipal": 7301,
      "iled": 7302,
      "Ġlayer": 7303,
      "ĠFilms": 7304,
      "ĠWikipedia": 7305,
      "Ġrural": 7306,
      "rance": 7307,
      "ĠSupreme": 7308,
      "Ġmanaged": 7309,
      "monton": 7310,
      "Ġordered": 7311,
      "Ã¼rtt": 7312,
      "600": 7313,
      "anes": 7314,
      "ĠBurg": 7315,
      "ĠHo": 7316,
      "ĠExpl": 7317,
      "Westphalia": 7318,
      "vi": 7319,
      "ĠSher": 7320,
      "ĠSaudi": 7321,
      "ĠHum": 7322,
      "Ġspect": 7323,
      "ĠOnce": 7324,
      "Ġremain": 7325,
      "hythm": 7326,
      "anted": 7327,
      "ĠGuinea": 7328,
      "ĠÃī": 7329,
      "ĠEthiop": 7330,
      "Ġwars": 7331,
      "ĠNa": 7332,
      "ackDown": 7333,
      "ĠIsa": 7334,
      "Ġconvert": 7335,
      "eller": 7336,
      "Ġcourse": 7337,
      "November": 7338,
      "ED": 7339,
      "Nor": 7340,
      "Res": 7341,
      "TC": 7342,
      "roke": 7343,
      "ĠMother": 7344,
      "ĠHop": 7345,
      "ĠHem": 7346,
      "ampton": 7347,
      "Ġvolcano": 7348,
      "Ġconcern": 7349,
      "Ġdigital": 7350,
      "asure": 7351,
      "imens": 7352,
      "oshi": 7353,
      "Ġheav": 7354,
      "Ġspring": 7355,
      "ĠDelaware": 7356,
      "ĠRick": 7357,
      "ĠLang": 7358,
      "aks": 7359,
      "ibly": 7360,
      "Ġtypically": 7361,
      "Ġdesigner": 7362,
      "Town": 7363,
      "Ġtheatre": 7364,
      "agram": 7365,
      "ĠKnow": 7366,
      "Ġopponent": 7367,
      "Ġrequired": 7368,
      "king": 7369,
      "Ġfilms": 7370,
      "Ġhour": 7371,
      "ĠNord": 7372,
      "Ġ56": 7373,
      "iolet": 7374,
      "TotalDivision": 7375,
      "Ġcras": 7376,
      "Ġaged": 7377,
      "ĠReagan": 7378,
      "Ġinvasion": 7379,
      "Ġconsider": 7380,
      "Ġelectronic": 7381,
      "ĠHebrew": 7382,
      "ĠDevelopment": 7383,
      "aling": 7384,
      "ĠTrib": 7385,
      "emen": 7386,
      "Ġorb": 7387,
      "Ġacts": 7388,
      "Ġdistinct": 7389,
      "Ġdefined": 7390,
      "organ": 7391,
      "ĠAqu": 7392,
      "ĠFather": 7393,
      "Ġ87": 7394,
      "Ġfocus": 7395,
      "hsil": 7396,
      "Italian": 7397,
      "Ġappointed": 7398,
      "ĠMargaret": 7399,
      "Ġrom": 7400,
      "2022": 7401,
      "ĠHimself": 7402,
      "agle": 7403,
      "emberg": 7404,
      "Ġsigns": 7405,
      "ĠMediterranean": 7406,
      "ĠHawaii": 7407,
      "London": 7408,
      "ÉĻ": 7409,
      "ĠTransport": 7410,
      "ĠBib": 7411,
      "ĠBarn": 7412,
      "ĠVin": 7413,
      "ride": 7414,
      "Ġavoid": 7415,
      "European": 7416,
      "Build": 7417,
      "Ġ113": 7418,
      "rod": 7419,
      "ĠRonald": 7420,
      "urray": 7421,
      "Ġ255": 7422,
      "ĠImperial": 7423,
      "ĠWilhelm": 7424,
      "erbai": 7425,
      "ecution": 7426,
      "ogle": 7427,
      "Ġeaten": 7428,
      "ĠUkrainian": 7429,
      "ĠÂ£": 7430,
      "Phil": 7431,
      "itness": 7432,
      "Ġfinds": 7433,
      "ĠNatural": 7434,
      "Ġtwenty": 7435,
      "Ġissue": 7436,
      "ĠTemple": 7437,
      "ocaust": 7438,
      "cription": 7439,
      "Ġpair": 7440,
      "ĠDur": 7441,
      "ĠJose": 7442,
      "1940": 7443,
      "Ġjump": 7444,
      "Ġdisorder": 7445,
      "Ġcrew": 7446,
      "ĠAmaz": 7447,
      "ĠLegend": 7448,
      "ĠMaple": 7449,
      "aming": 7450,
      "Ġnecess": 7451,
      "Ġrisk": 7452,
      "Ġengines": 7453,
      "Ġwrestlers": 7454,
      "Ġsilver": 7455,
      "Map": 7456,
      "last": 7457,
      "Äį": 7458,
      "Ġmovements": 7459,
      "cluding": 7460,
      "ĠPolice": 7461,
      "Ġ1891": 7462,
      "TotalDivisionAppsGoalsAppsGoalsAppsGoalsAppsGoals": 7463,
      "Rec": 7464,
      "bar": 7465,
      "sv": 7466,
      "ÙĪ": 7467,
      "ilo": 7468,
      "Ġcommand": 7469,
      "Ġfloor": 7470,
      "ÃŃa": 7471,
      "ĠHeavyweight": 7472,
      "stal": 7473,
      "rived": 7474,
      "clus": 7475,
      "Ġ1894": 7476,
      "uous": 7477,
      "Ġsoul": 7478,
      "ĠRac": 7479,
      "rypt": 7480,
      "Ġ69": 7481,
      "hips": 7482,
      "Ġchanging": 7483,
      "Ġremember": 7484,
      "Ġsoldier": 7485,
      "encies": 7486,
      "ĠNapoleon": 7487,
      "Ġrow": 7488,
      "Ġsave": 7489,
      "ĠBilly": 7490,
      "iper": 7491,
      "ĠArd": 7492,
      "ĠAnderson": 7493,
      "ĠMedal": 7494,
      "thes": 7495,
      "Ġwine": 7496,
      "Ġwarn": 7497,
      "Ġfreedom": 7498,
      "ĠProm": 7499,
      "otten": 7500,
      "Ġ1893": 7501,
      "Ġpilot": 7502,
      "Gu": 7503,
      "iago": 7504,
      "ni": 7505,
      "zh": 7506,
      "Ġmental": 7507,
      "ifferent": 7508,
      "Ġshall": 7509,
      "Ġcombined": 7510,
      "Ġcrimes": 7511,
      "Ġnegative": 7512,
      "ĠLiving": 7513,
      "ĠEug": 7514,
      "ĠNelson": 7515,
      "anni": 7516,
      "Ġending": 7517,
      "Ġsubt": 7518,
      "Ġinstit": 7519,
      "ĠPage": 7520,
      "Ġeff": 7521,
      "ĠConc": 7522,
      "alta": 7523,
      "Ġdepart": 7524,
      "1961": 7525,
      "ĠHou": 7526,
      "uten": 7527,
      "ĠZh": 7528,
      "Ġrecently": 7529,
      "Ġoperas": 7530,
      "EC": 7531,
      "Ġcorn": 7532,
      "andom": 7533,
      "Ġpan": 7534,
      "ĠMit": 7535,
      "ĠDepression": 7536,
      "ĠCommunist": 7537,
      "ĠStandard": 7538,
      "usalem": 7539,
      "Win": 7540,
      "ĠClimate": 7541,
      "Ġmodels": 7542,
      "eltic": 7543,
      "ĠFranklin": 7544,
      "ĠBobby": 7545,
      "PD": 7546,
      "friend": 7547,
      "ĠCulture": 7548,
      "ĠAy": 7549,
      "Ġgiant": 7550,
      "ĠKu": 7551,
      "Ġimmedi": 7552,
      "General": 7553,
      "Ġhabit": 7554,
      "Ġreform": 7555,
      "ithm": 7556,
      "ĠKo": 7557,
      "ĠVas": 7558,
      "Ġclothes": 7559,
      "Ġagric": 7560,
      "Ġzone": 7561,
      "minster": 7562,
      "Ġdiplomat": 7563,
      "Ġcab": 7564,
      "ĠPa": 7565,
      "ĠPear": 7566,
      "ĠDave": 7567,
      "Ġplans": 7568,
      "ĠDiego": 7569,
      "ClubSeasonLeague": 7570,
      "ika": 7571,
      "asha": 7572,
      "ĠKentucky": 7573,
      "orage": 7574,
      "Ġcovers": 7575,
      "Ġ(;": 7576,
      "action": 7577,
      "Ġ...": 7578,
      "ĠTrump": 7579,
      "Ġelections": 7580,
      "loan": 7581,
      "Ġdomestic": 7582,
      "ancellor": 7583,
      "Ġhomes": 7584,
      "Ġtherefore": 7585,
      "Ġ1865": 7586,
      "ĠBenjamin": 7587,
      "Ġreaction": 7588,
      "Per": 7589,
      "bishop": 7590,
      "star": 7591,
      "Ġmetres": 7592,
      "Ġexplorer": 7593,
      "Ġbrothers": 7594,
      "ĠCommonwealth": 7595,
      "Qu": 7596,
      "Ġbatter": 7597,
      "omers": 7598,
      "Ġspin": 7599,
      "Ã©s": 7600,
      "Ġknew": 7601,
      "ronic": 7602,
      "ĠAngl": 7603,
      "ĠOttawa": 7604,
      "Ã¼rttemberg": 7605,
      "330": 7606,
      "Saint": 7607,
      "ĠGB": 7608,
      "agues": 7609,
      "Ġquarter": 7610,
      "ĠEdmonton": 7611,
      "ĠMrs": 7612,
      "iang": 7613,
      "aurus": 7614,
      "Ġreduc": 7615,
      "Ġlyrics": 7616,
      "OC": 7617,
      "Will": 7618,
      "pect": 7619,
      "ĠGarden": 7620,
      "umes": 7621,
      "Ġrugby": 7622,
      "such": 7623,
      "Ġfully": 7624,
      "ĠMaced": 7625,
      "Ġ1860": 7626,
      "Ġimages": 7627,
      "Ġ1888": 7628,
      "GBT": 7629,
      "mingham": 7630,
      "ĠBetween": 7631,
      "Ġsend": 7632,
      "Ġ66": 7633,
      "ĠAustin": 7634,
      "ĠBaron": 7635,
      "uzz": 7636,
      "ĠElectric": 7637,
      "ovakia": 7638,
      "ĠRound": 7639,
      "rix": 7640,
      "ĠNort": 7641,
      "Ġ1870": 7642,
      "ogue": 7643,
      "Ġ--": 7644,
      "ocked": 7645,
      "writers": 7646,
      "ĠNASA": 7647,
      "Car": 7648,
      "Sax": 7649,
      "aints": 7650,
      "Ġglobal": 7651,
      "ĠSerbia": 7652,
      "then": 7653,
      "Ãł": 7654,
      "Ġmart": 7655,
      "ĠGust": 7656,
      "ĠNon": 7657,
      "Ġ77": 7658,
      "oyal": 7659,
      "ĠRomanian": 7660,
      "ĠâĢł": 7661,
      "Ġchoose": 7662,
      "Cap": 7663,
      "Ġcm": 7664,
      "Ġmm": 7665,
      "ĠTibet": 7666,
      "ĠFive": 7667,
      "ĠWy": 7668,
      "uma": 7669,
      "Ġsteel": 7670,
      "iah": 7671,
      "Ġvia": 7672,
      "ĠVice": 7673,
      "Ġ84": 7674,
      "ĠYorkshire": 7675,
      "Ġstands": 7676,
      "ĠAntar": 7677,
      "Ġtreated": 7678,
      "ĠWayne": 7679,
      "Ġnortheast": 7680,
      "ĠForeign": 7681,
      "Be": 7682,
      "Russian": 7683,
      "Ġmedic": 7684,
      "hess": 7685,
      "Ġfalls": 7686,
      "Ġunique": 7687,
      "Ġlearning": 7688,
      "ĠJay": 7689,
      "Ġplaywright": 7690,
      "Ġhighly": 7691,
      "Ġ1882": 7692,
      "Ġ1885": 7693,
      "fam": 7694,
      "gie": 7695,
      "Ġmaster": 7696,
      "acre": 7697,
      "Ġresources": 7698,
      "Ġowner": 7699,
      "Ġinterp": 7700,
      "Ġfollows": 7701,
      "Ã¶r": 7702,
      "Ġtribe": 7703,
      "HS": 7704,
      "Sch": 7705,
      "onents": 7706,
      "otan": 7707,
      "Ġlegend": 7708,
      "Ġple": 7709,
      "Ġpig": 7710,
      "ĠGran": 7711,
      "Ġprey": 7712,
      "Ġ1887": 7713,
      "Ġstatesman": 7714,
      "ĠTheod": 7715,
      "ĠLost": 7716,
      "Ġroles": 7717,
      "Ġperfect": 7718,
      "Ġorganisms": 7719,
      "Ġfunctions": 7720,
      "ĠJerusalem": 7721,
      ";\"|": 7722,
      "ĠAff": 7723,
      "osa": 7724,
      "Ġdifferences": 7725,
      "Ġdamaged": 7726,
      "Ġanalysis": 7727,
      "illo": 7728,
      "Ġpainted": 7729,
      "eas": 7730,
      "wise": 7731,
      "leton": 7732,
      "Ġnations": 7733,
      "ogo": 7734,
      "ĠâĶ": 7735,
      "Ġelectrical": 7736,
      "ĠGordon": 7737,
      "Ġtiss": 7738,
      "Ġ122": 7739,
      "ĠSad": 7740,
      "ĠFil": 7741,
      "emic": 7742,
      "ebra": 7743,
      "rane": 7744,
      "Ġannoun": 7745,
      "ĠArabia": 7746,
      "Ġtitles": 7747,
      "Brazil": 7748,
      "ĠSie": 7749,
      "ĠBach": 7750,
      "unc": 7751,
      "Ġmotion": 7752,
      "dorf": 7753,
      "riff": 7754,
      "Ġauthority": 7755,
      "ĠOtto": 7756,
      "PS": 7757,
      "inus": 7758,
      "eton": 7759,
      "igg": 7760,
      "ĠOw": 7761,
      "1010": 7762,
      "Ġconsists": 7763,
      "1958": 7764,
      "Ġfinish": 7765,
      "Ġturns": 7766,
      "Ġthinking": 7767,
      "Ġlabor": 7768,
      "Ġcastle": 7769,
      "Buildings": 7770,
      "aims": 7771,
      "icts": 7772,
      "Ġperman": 7773,
      "Ġfestival": 7774,
      "uguay": 7775,
      "rah": 7776,
      "ĠAbraham": 7777,
      "Ġreligions": 7778,
      "ĠTerritory": 7779,
      "800": 7780,
      "Mil": 7781,
      "onna": 7782,
      "Ġsons": 7783,
      "Ġdivor": 7784,
      "ĠLion": 7785,
      "asters": 7786,
      "ĠAlt": 7787,
      "ffee": 7788,
      "Ġinterested": 7789,
      "Ġenemy": 7790,
      "ĠRenaissance": 7791,
      "nia": 7792,
      "Ġ1000": 7793,
      "âĢĶâĢĶâĢĶâĢĶ": 7794,
      "ĠâĢĺ": 7795,
      "ĠcompetitionClubSeasonLeague": 7796,
      "ĠCaesar": 7797,
      "??": 7798,
      "mat": 7799,
      "ĠSign": 7800,
      "Ġlack": 7801,
      "Ġeating": 7802,
      "ules": 7803,
      "ĠCommission": 7804,
      "cht": 7805,
      "Ġattention": 7806,
      "ĠFlight": 7807,
      "Ġslightly": 7808,
      "ĠAzerbai": 7809,
      "Ġvirus": 7810,
      "ĠISBN": 7811,
      "roph": 7812,
      "uku": 7813,
      "Ġcultures": 7814,
      "ĠSarah": 7815,
      "ĠStatistics": 7816,
      "Ġbeliefs": 7817,
      "Ġvehicles": 7818,
      "ĠLuxemb": 7819,
      "ĠPrim": 7820,
      "ĠVo": 7821,
      "Ġagreement": 7822,
      "Ġcontent": 7823,
      "Ġpasses": 7824,
      "Ġillness": 7825,
      "ĠTun": 7826,
      "ĠGa": 7827,
      "sole": 7828,
      "Ġsevent": 7829,
      "Ġ57": 7830,
      "egunda": 7831,
      "Ġorganized": 7832,
      "scar": 7833,
      "ĠDisco": 7834,
      "Ġhousehold": 7835,
      "Ġjudge": 7836,
      "oting": 7837,
      "ĠDC": 7838,
      "ĠVenezuel": 7839,
      "166": 7840,
      "ĠteamYearAppsGoals": 7841,
      "1959": 7842,
      "ĠSupporting": 7843,
      "dale": 7844,
      "Ġfelt": 7845,
      "Ġchance": 7846,
      "Ġshared": 7847,
      "ieties": 7848,
      "Ġquality": 7849,
      "Ġcardinal": 7850,
      "Ġconflict": 7851,
      "!\"": 7852,
      "Other": 7853,
      "found": 7854,
      "vement": 7855,
      "ĠMond": 7856,
      "1945": 7857,
      "iph": 7858,
      "ĠLabor": 7859,
      "ĠMoore": 7860,
      "County": 7861,
      "Ø±": 7862,
      "ĠLenn": 7863,
      "Ġchain": 7864,
      "Ġserve": 7865,
      "Ġvolume": 7866,
      "allel": 7867,
      "bow": 7868,
      "furt": 7869,
      "ĠAud": 7870,
      "Ġorg": 7871,
      "Ġdevices": 7872,
      "ĠJacques": 7873,
      "Columb": 7874,
      "ĠExpress": 7875,
      "eonato": 7876,
      "ĠWagner": 7877,
      "Communes": 7878,
      "hr": 7879,
      "Ġwaters": 7880,
      "Ġcatch": 7881,
      "ĠLow": 7882,
      "ocene": 7883,
      "Ġclimb": 7884,
      "anner": 7885,
      "ridges": 7886,
      "Ġdecision": 7887,
      "Ġproducers": 7888,
      "Ġphr": 7889,
      "Ġviolin": 7890,
      "700": 7891,
      "eaking": 7892,
      "ĠLiverpool": 7893,
      "Ġ74": 7894,
      "Ġpolicy": 7895,
      "Ġcrash": 7896,
      "Ġvillages": 7897,
      "Ġmachines": 7898,
      "ĠCosta": 7899,
      "UN": 7900,
      "har": 7901,
      "world": 7902,
      "Ġur": 7903,
      "isch": 7904,
      "ĠBan": 7905,
      "Ġthrow": 7906,
      "ĠTrad": 7907,
      "Ġbehavi": 7908,
      "ĠCleveland": 7909,
      "ĠTak": 7910,
      "ĠIan": 7911,
      "ĠLanguage": 7912,
      "ranches": 7913,
      "Ġresponse": 7914,
      "Ġvisited": 7915,
      "Ġcapture": 7916,
      "ĠBulgaria": 7917,
      "ei": 7918,
      "Ð»": 7919,
      "ĠMend": 7920,
      "ĠFem": 7921,
      "ocide": 7922,
      "Ġarrived": 7923,
      "place": 7924,
      "Ġgoods": 7925,
      "ĠIranian": 7926,
      "Ġaffected": 7927,
      "Ġpreviously": 7928,
      "Ġextremely": 7929,
      "Bel": 7930,
      "âĪĴ": 7931,
      "onies": 7932,
      "itro": 7933,
      "icon": 7934,
      "Ġnomin": 7935,
      "Ġrise": 7936,
      "Ġbroken": 7937,
      "apped": 7938,
      "Ġcircle": 7939,
      "Ġrequire": 7940,
      "ĠTestament": 7941,
      "ĠTel": 7942,
      "ĠSid": 7943,
      "2023": 7944,
      "eta": 7945,
      "acle": 7946,
      "eoples": 7947,
      "ĠHolocaust": 7948,
      "SS": 7949,
      "rent": 7950,
      "ĠCart": 7951,
      "ĠAround": 7952,
      "ĠDatabase": 7953,
      "Ġstated": 7954,
      "Ġstick": 7955,
      "ahn": 7956,
      "Ġcoat": 7957,
      "risis": 7958,
      "Ġleads": 7959,
      "Ġdrums": 7960,
      "Ġdiscover": 7961,
      "311": 7962,
      "Ġfir": 7963,
      "owder": 7964,
      "ĠBlood": 7965,
      "iami": 7966,
      "Ġ1883": 7967,
      "Ġpriest": 7968,
      "ĠOriginal": 7969,
      "Ġmessage": 7970,
      "\"),": 7971,
      "Ã«": 7972,
      "err": 7973,
      "ĠSi": 7974,
      "ĠJama": 7975,
      "oba": 7976,
      "ĠNewton": 7977,
      "Ġcontact": 7978,
      "Ġ95": 7979,
      "Ġ1876": 7980,
      "Ġamounts": 7981,
      "Ġsurvive": 7982,
      "Ġtranslation": 7983,
      "Ġmolec": 7984,
      "ĠVIII": 7985,
      "ĠScientists": 7986,
      "Ġgreater": 7987,
      "Ab": 7988,
      "Ass": 7989,
      "ĠRow": 7990,
      "Ġalg": 7991,
      "Ġtranslated": 7992,
      "track": 7993,
      "hol": 7994,
      "harm": 7995,
      "Ġfile": 7996,
      "Ġliber": 7997,
      "ĠFull": 7998,
      "ĠKan": 7999
    },
    "merges": [
      [
        "Ġ",
        "t"
      ],
      [
        "h",
        "e"
      ],
      [
        "a",
        "n"
      ],
      [
        "i",
        "n"
      ],
      [
        "e",
        "r"
      ],
      [
        "o",
        "r"
      ],
      [
        "o",
        "n"
      ],
      [
        "Ġt",
        "he"
      ],
      [
        "Ġ",
        "a"
      ],
      [
        "e",
        "s"
      ],
      [
        "a",
        "t"
      ],
      [
        "i",
        "s"
      ],
      [
        "e",
        "n"
      ],
      [
        "a",
        "r"
      ],
      [
        "Ġ",
        "o"
      ],
      [
        "Ġ",
        "s"
      ],
      [
        "a",
        "l"
      ],
      [
        "e",
        "d"
      ],
      [
        "Ġ",
        "w"
      ],
      [
        "i",
        "t"
      ],
      [
        "Ġ",
        "c"
      ],
      [
        "Ġo",
        "f"
      ],
      [
        "r",
        "e"
      ],
      [
        "i",
        "c"
      ],
      [
        "an",
        "d"
      ],
      [
        "Ġ",
        "C"
      ],
      [
        "Ġ",
        "b"
      ],
      [
        "Ġ",
        "1"
      ],
      [
        "Ġ",
        "p"
      ],
      [
        "Ġ",
        "f"
      ],
      [
        "Ġ",
        "in"
      ],
      [
        "a",
        "s"
      ],
      [
        "Ġ",
        "m"
      ],
      [
        "Ġ",
        "T"
      ],
      [
        "Ġ",
        "S"
      ],
      [
        "Ġ",
        "A"
      ],
      [
        "r",
        "o"
      ],
      [
        "Ġ",
        "and"
      ],
      [
        "in",
        "g"
      ],
      [
        "l",
        "e"
      ],
      [
        "i",
        "on"
      ],
      [
        "o",
        "u"
      ],
      [
        "Ġ",
        "d"
      ],
      [
        "Ġ",
        "("
      ],
      [
        "Ġt",
        "o"
      ],
      [
        "â",
        "Ģ"
      ],
      [
        "Ġ",
        "M"
      ],
      [
        "Ġ",
        "h"
      ],
      [
        "i",
        "l"
      ],
      [
        "a",
        "m"
      ],
      [
        "2",
        "0"
      ],
      [
        "u",
        "s"
      ],
      [
        "Ġ",
        "B"
      ],
      [
        "o",
        "m"
      ],
      [
        "en",
        "t"
      ],
      [
        "Ġ1",
        "9"
      ],
      [
        "e",
        "l"
      ],
      [
        "Ġ",
        "P"
      ],
      [
        "Ġ",
        "I"
      ],
      [
        "Ġ",
        "is"
      ],
      [
        "âĢ",
        "ĵ"
      ],
      [
        "o",
        "l"
      ],
      [
        "Ġ",
        "R"
      ],
      [
        "ĠT",
        "he"
      ],
      [
        "at",
        "e"
      ],
      [
        "e",
        "t"
      ],
      [
        "Ġ",
        "H"
      ],
      [
        "Ġ",
        "l"
      ],
      [
        "|",
        "|"
      ],
      [
        "o",
        "t"
      ],
      [
        "a",
        "c"
      ],
      [
        "Ġ",
        "n"
      ],
      [
        "Ġt",
        "h"
      ],
      [
        "a",
        "d"
      ],
      [
        "s",
        "t"
      ],
      [
        "u",
        "r"
      ],
      [
        "or",
        "y"
      ],
      [
        "e",
        "c"
      ],
      [
        "Ġ",
        "L"
      ],
      [
        "i",
        "r"
      ],
      [
        "Ġ",
        "F"
      ],
      [
        "a",
        "y"
      ],
      [
        "Ġ",
        "D"
      ],
      [
        "Ġ",
        "G"
      ],
      [
        "u",
        "n"
      ],
      [
        "Ġ",
        "g"
      ],
      [
        "r",
        "i"
      ],
      [
        "er",
        "s"
      ],
      [
        "Ġ",
        "20"
      ],
      [
        "Ġ",
        "E"
      ],
      [
        "ate",
        "g"
      ],
      [
        "ateg",
        "ory"
      ],
      [
        "ĠC",
        "ategory"
      ],
      [
        "t",
        "h"
      ],
      [
        "Ġ",
        "W"
      ],
      [
        "i",
        "d"
      ],
      [
        "i",
        "v"
      ],
      [
        "Ġ",
        "N"
      ],
      [
        "i",
        "m"
      ],
      [
        "Ġ",
        "J"
      ],
      [
        "Ġ",
        "âĢĵ"
      ],
      [
        "Ġ",
        "e"
      ],
      [
        "o",
        "w"
      ],
      [
        "is",
        "t"
      ],
      [
        "al",
        "l"
      ],
      [
        "he",
        "r"
      ],
      [
        "a",
        "g"
      ],
      [
        "u",
        "m"
      ],
      [
        "Ġw",
        "as"
      ],
      [
        "i",
        "g"
      ],
      [
        "Ġ",
        "on"
      ],
      [
        "Ġf",
        "or"
      ],
      [
        "c",
        "h"
      ],
      [
        "o",
        "p"
      ],
      [
        "at",
        "ion"
      ],
      [
        "u",
        "t"
      ],
      [
        "Ġ",
        "O"
      ],
      [
        "e",
        "m"
      ],
      [
        "u",
        "l"
      ],
      [
        "Ġ",
        "re"
      ],
      [
        "es",
        "t"
      ],
      [
        "c",
        "t"
      ],
      [
        "Ġs",
        "t"
      ],
      [
        "1",
        "9"
      ],
      [
        "i",
        "an"
      ],
      [
        "o",
        "s"
      ],
      [
        "v",
        "er"
      ],
      [
        "t",
        "er"
      ],
      [
        "c",
        "e"
      ],
      [
        "a",
        "p"
      ],
      [
        "0",
        "0"
      ],
      [
        "Ġb",
        "e"
      ],
      [
        "Ġa",
        "re"
      ],
      [
        "a",
        "v"
      ],
      [
        "Ġa",
        "l"
      ],
      [
        "Ġa",
        "s"
      ],
      [
        "it",
        "h"
      ],
      [
        "ro",
        "m"
      ],
      [
        "o",
        "d"
      ],
      [
        "Ġ",
        "K"
      ],
      [
        "i",
        "a"
      ],
      [
        "a",
        "in"
      ],
      [
        "ĠI",
        "n"
      ],
      [
        "l",
        "y"
      ],
      [
        "Ġ",
        "U"
      ],
      [
        "Ġ",
        "an"
      ],
      [
        "b",
        "er"
      ],
      [
        "Ġb",
        "y"
      ],
      [
        "a",
        "k"
      ],
      [
        "Ġ",
        "2"
      ],
      [
        "Ġ",
        "|"
      ],
      [
        "m",
        "er"
      ],
      [
        "ou",
        "n"
      ],
      [
        "Ġw",
        "h"
      ],
      [
        "ar",
        "t"
      ],
      [
        "Ġw",
        "ith"
      ],
      [
        "Ġ",
        "r"
      ],
      [
        "Ġth",
        "at"
      ],
      [
        "i",
        "es"
      ],
      [
        "Ġf",
        "rom"
      ],
      [
        "Ġ",
        "or"
      ],
      [
        "is",
        "h"
      ],
      [
        "il",
        "l"
      ],
      [
        "u",
        "p"
      ],
      [
        "o",
        "v"
      ],
      [
        "es",
        "s"
      ],
      [
        "i",
        "f"
      ],
      [
        "Ġ",
        "it"
      ],
      [
        "Ġ",
        "he"
      ],
      [
        "h",
        "t"
      ],
      [
        "ĠS",
        "t"
      ],
      [
        "a",
        "b"
      ],
      [
        "Ġp",
        "l"
      ],
      [
        "Ġ",
        "\""
      ],
      [
        "Ġ20",
        "0"
      ],
      [
        "l",
        "d"
      ],
      [
        "'",
        "s"
      ],
      [
        "it",
        "y"
      ],
      [
        "ic",
        "an"
      ],
      [
        "ĠI",
        "t"
      ],
      [
        "ĠC",
        "h"
      ],
      [
        "t",
        "her"
      ],
      [
        "Ġa",
        "t"
      ],
      [
        "o",
        "c"
      ],
      [
        "e",
        "p"
      ],
      [
        "Ġc",
        "om"
      ],
      [
        "e",
        "w"
      ],
      [
        "Ġ",
        "v"
      ],
      [
        "ar",
        "d"
      ],
      [
        "Ġ",
        "V"
      ],
      [
        "an",
        "t"
      ],
      [
        "e",
        "ar"
      ],
      [
        "u",
        "e"
      ],
      [
        "ic",
        "h"
      ],
      [
        "Ġ",
        "k"
      ],
      [
        "or",
        "t"
      ],
      [
        "u",
        "b"
      ],
      [
        "u",
        "d"
      ],
      [
        "Ġc",
        "on"
      ],
      [
        "am",
        "e"
      ],
      [
        "Ġp",
        "ro"
      ],
      [
        "i",
        "p"
      ],
      [
        "e",
        "f"
      ],
      [
        "Ġ",
        "us"
      ],
      [
        "Ġ1",
        "8"
      ],
      [
        "o",
        "g"
      ],
      [
        "Ġ",
        "3"
      ],
      [
        "ar",
        "y"
      ],
      [
        "mer",
        "ican"
      ],
      [
        "e",
        "op"
      ],
      [
        "r",
        "it"
      ],
      [
        "as",
        "t"
      ],
      [
        "Ġc",
        "h"
      ],
      [
        "an",
        "g"
      ],
      [
        "eop",
        "le"
      ],
      [
        "ou",
        "r"
      ],
      [
        "en",
        "d"
      ],
      [
        "or",
        "e"
      ],
      [
        "u",
        "g"
      ],
      [
        "el",
        "l"
      ],
      [
        "e",
        "b"
      ],
      [
        "Ġ20",
        "1"
      ],
      [
        "o",
        "st"
      ],
      [
        "on",
        "g"
      ],
      [
        "us",
        "t"
      ],
      [
        "20",
        "0"
      ],
      [
        "or",
        "d"
      ],
      [
        "ĠH",
        "e"
      ],
      [
        "s",
        "e"
      ],
      [
        "ĠU",
        "n"
      ],
      [
        "i",
        "e"
      ],
      [
        "m",
        "ent"
      ],
      [
        "s",
        "o"
      ],
      [
        "av",
        "e"
      ],
      [
        "c",
        "es"
      ],
      [
        "r",
        "a"
      ],
      [
        "Ġ19",
        "9"
      ],
      [
        "m",
        "an"
      ],
      [
        "in",
        "e"
      ],
      [
        "r",
        "an"
      ],
      [
        "o",
        "k"
      ],
      [
        "ĠT",
        "h"
      ],
      [
        "Ġn",
        "ot"
      ],
      [
        "iv",
        "e"
      ],
      [
        "q",
        "u"
      ],
      [
        "r",
        "y"
      ],
      [
        "at",
        "ed"
      ],
      [
        "l",
        "and"
      ],
      [
        "Ġpl",
        "ay"
      ],
      [
        "om",
        "e"
      ],
      [
        "er",
        "e"
      ],
      [
        "Ġh",
        "is"
      ],
      [
        "Ġs",
        "h"
      ],
      [
        "ac",
        "k"
      ],
      [
        "Ġs",
        "p"
      ],
      [
        "Ġp",
        "eople"
      ],
      [
        "un",
        "d"
      ],
      [
        "Ġs",
        "e"
      ],
      [
        "ĠA",
        "merican"
      ],
      [
        "ec",
        "t"
      ],
      [
        "Ġe",
        "x"
      ],
      [
        "um",
        "b"
      ],
      [
        "Ġ",
        "le"
      ],
      [
        "oun",
        "t"
      ],
      [
        "i",
        "k"
      ],
      [
        "Ġ",
        "-"
      ],
      [
        "Ġd",
        "e"
      ],
      [
        "i",
        "al"
      ],
      [
        "ĠA",
        "n"
      ],
      [
        "g",
        "e"
      ],
      [
        "Ġw",
        "ere"
      ],
      [
        "Ġ",
        "y"
      ],
      [
        "Ġ",
        "Y"
      ],
      [
        "Ġb",
        "ec"
      ],
      [
        "ĠL",
        "e"
      ],
      [
        "u",
        "c"
      ],
      [
        "Ġh",
        "as"
      ],
      [
        "Ġal",
        "so"
      ],
      [
        "1",
        "0"
      ],
      [
        "ic",
        "al"
      ],
      [
        "ir",
        "st"
      ],
      [
        "u",
        "re"
      ],
      [
        "Ġwh",
        "ich"
      ],
      [
        "ĠA",
        "l"
      ],
      [
        "ou",
        "t"
      ],
      [
        "he",
        "n"
      ],
      [
        "or",
        "k"
      ],
      [
        "id",
        "e"
      ],
      [
        "ion",
        "s"
      ],
      [
        "Ġc",
        "an"
      ],
      [
        "Ġ|",
        "-"
      ],
      [
        "all",
        "y"
      ],
      [
        "em",
        "ber"
      ],
      [
        "e",
        "y"
      ],
      [
        "ĠE",
        "n"
      ],
      [
        "as",
        "s"
      ],
      [
        "am",
        "p"
      ],
      [
        "ow",
        "n"
      ],
      [
        "Ġh",
        "ave"
      ],
      [
        "ag",
        "e"
      ],
      [
        "an",
        "y"
      ],
      [
        "ig",
        "ht"
      ],
      [
        "i",
        "re"
      ],
      [
        "er",
        "en"
      ],
      [
        "Ġ",
        "4"
      ],
      [
        "r",
        "es"
      ],
      [
        "on",
        "d"
      ],
      [
        "at",
        "es"
      ],
      [
        "Ġa",
        "b"
      ],
      [
        "p",
        "er"
      ],
      [
        "âĢ",
        "Ķ"
      ],
      [
        "f",
        "f"
      ],
      [
        "it",
        "ed"
      ],
      [
        "Ġt",
        "e"
      ],
      [
        "or",
        "n"
      ],
      [
        "Ġ19",
        "8"
      ],
      [
        "ou",
        "s"
      ],
      [
        ")",
        "."
      ],
      [
        "Ġcom",
        "p"
      ],
      [
        "Ġa",
        "ct"
      ],
      [
        "Ġthe",
        "y"
      ],
      [
        "ĠA",
        "r"
      ],
      [
        "p",
        "p"
      ],
      [
        "s",
        "p"
      ],
      [
        "o",
        "ot"
      ],
      [
        "19",
        "9"
      ],
      [
        "ad",
        "e"
      ],
      [
        "Ġf",
        "irst"
      ],
      [
        ")",
        ","
      ],
      [
        "t",
        "o"
      ],
      [
        "or",
        "ld"
      ],
      [
        "r",
        "ic"
      ],
      [
        "at",
        "er"
      ],
      [
        "ĠM",
        "ar"
      ],
      [
        "al",
        "s"
      ],
      [
        "ac",
        "h"
      ],
      [
        "g",
        "ht"
      ],
      [
        "Ġ",
        "5"
      ],
      [
        "Ġg",
        "o"
      ],
      [
        "Ġc",
        "l"
      ],
      [
        "Ġo",
        "ther"
      ],
      [
        "l",
        "ish"
      ],
      [
        "l",
        "es"
      ],
      [
        "ation",
        "al"
      ],
      [
        "i",
        "z"
      ],
      [
        "Ġ19",
        "7"
      ],
      [
        "Ġa",
        "r"
      ],
      [
        "p",
        "x"
      ],
      [
        "ro",
        "w"
      ],
      [
        "ĠR",
        "ef"
      ],
      [
        "eren",
        "ces"
      ],
      [
        "a",
        "us"
      ],
      [
        "Ġon",
        "e"
      ],
      [
        "ro",
        "p"
      ],
      [
        "ic",
        "e"
      ],
      [
        "ag",
        "ue"
      ],
      [
        "at",
        "h"
      ],
      [
        "t",
        "s"
      ],
      [
        "b",
        "all"
      ],
      [
        "Ġp",
        "art"
      ],
      [
        "f",
        "ter"
      ],
      [
        "o",
        "b"
      ],
      [
        "Ġc",
        "all"
      ],
      [
        "Ġm",
        "ov"
      ],
      [
        "ĠRef",
        "erences"
      ],
      [
        "Ġthe",
        "ir"
      ],
      [
        "a",
        "w"
      ],
      [
        "ac",
        "e"
      ],
      [
        "in",
        "d"
      ],
      [
        "Ġ",
        "un"
      ],
      [
        "c",
        "l"
      ],
      [
        "Ġb",
        "ut"
      ],
      [
        "r",
        "ess"
      ],
      [
        "oun",
        "d"
      ],
      [
        "im",
        "e"
      ],
      [
        "ĠEn",
        "g"
      ],
      [
        "Ġ",
        "6"
      ],
      [
        "re",
        "e"
      ],
      [
        "i",
        "b"
      ],
      [
        "Ġh",
        "ad"
      ],
      [
        "Ġwh",
        "o"
      ],
      [
        "er",
        "man"
      ],
      [
        "1",
        "8"
      ],
      [
        "e",
        "an"
      ],
      [
        "r",
        "u"
      ],
      [
        "r",
        "en"
      ],
      [
        "or",
        "s"
      ],
      [
        "or",
        "m"
      ],
      [
        "ĠUn",
        "ited"
      ],
      [
        "Ġ",
        "j"
      ],
      [
        "w",
        "o"
      ],
      [
        "en",
        "s"
      ],
      [
        "Ġcall",
        "ed"
      ],
      [
        "ol",
        "d"
      ],
      [
        "ing",
        "s"
      ],
      [
        "ig",
        "n"
      ],
      [
        "it",
        "e"
      ],
      [
        "oot",
        "ball"
      ],
      [
        "t",
        "e"
      ],
      [
        "Ġ19",
        "6"
      ],
      [
        "i",
        "o"
      ],
      [
        "Ġus",
        "ed"
      ],
      [
        "ak",
        "e"
      ],
      [
        "ver",
        "y"
      ],
      [
        "Ġ",
        "7"
      ],
      [
        "Ġy",
        "ear"
      ],
      [
        "ĠTh",
        "is"
      ],
      [
        "h",
        "y"
      ],
      [
        "Ġal",
        "l"
      ],
      [
        "p",
        "ort"
      ],
      [
        "ic",
        "s"
      ],
      [
        "n",
        "e"
      ],
      [
        "Ġ",
        "ro"
      ],
      [
        "ac",
        "t"
      ],
      [
        "il",
        "d"
      ],
      [
        "on",
        "e"
      ],
      [
        "ou",
        "ld"
      ],
      [
        "o",
        "h"
      ],
      [
        "on",
        "s"
      ],
      [
        "ri",
        "ght"
      ],
      [
        "5",
        "0"
      ],
      [
        "1",
        "1"
      ],
      [
        "u",
        "ch"
      ],
      [
        "o",
        "ok"
      ],
      [
        "Ġth",
        "is"
      ],
      [
        "ĠN",
        "ew"
      ],
      [
        "is",
        "ion"
      ],
      [
        "ar",
        "e"
      ],
      [
        "Ġab",
        "out"
      ],
      [
        "us",
        "ic"
      ],
      [
        "Ġ1",
        "7"
      ],
      [
        "ĠLe",
        "ague"
      ],
      [
        "Ã",
        "©"
      ],
      [
        "Ġw",
        "eb"
      ],
      [
        "Ġ19",
        "4"
      ],
      [
        "Ġ",
        "8"
      ],
      [
        "le",
        "ct"
      ],
      [
        "Ġs",
        "c"
      ],
      [
        "ul",
        "t"
      ],
      [
        "Ġm",
        "any"
      ],
      [
        "ar",
        "k"
      ],
      [
        "e",
        "v"
      ],
      [
        "ik",
        "e"
      ],
      [
        "ĠThe",
        "y"
      ],
      [
        "ter",
        "n"
      ],
      [
        "ation",
        "s"
      ],
      [
        "Ġs",
        "er"
      ],
      [
        "ĠG",
        "erman"
      ],
      [
        "Ġk",
        "n"
      ],
      [
        "t",
        "on"
      ],
      [
        "Ġm",
        "ade"
      ],
      [
        "t",
        "en"
      ],
      [
        "Ġit",
        "s"
      ],
      [
        "am",
        "es"
      ],
      [
        "ent",
        "s"
      ],
      [
        "Ġm",
        "ost"
      ],
      [
        "en",
        "ce"
      ],
      [
        "w",
        "ard"
      ],
      [
        "i",
        "ed"
      ],
      [
        "3",
        "0"
      ],
      [
        "Ġt",
        "r"
      ],
      [
        "Ġweb",
        "s"
      ],
      [
        "f",
        "er"
      ],
      [
        "ĠO",
        "ther"
      ],
      [
        "i",
        "le"
      ],
      [
        "ĠS",
        "p"
      ],
      [
        "a",
        "h"
      ],
      [
        "1",
        "2"
      ],
      [
        "w",
        "e"
      ],
      [
        "Ġd",
        "is"
      ],
      [
        "=",
        "\""
      ],
      [
        "c",
        "he"
      ],
      [
        "i",
        "er"
      ],
      [
        "o",
        "od"
      ],
      [
        "aus",
        "e"
      ],
      [
        "ou",
        "th"
      ],
      [
        "p",
        "t"
      ],
      [
        "it",
        "es"
      ],
      [
        "ic",
        "k"
      ],
      [
        "Ġd",
        "o"
      ],
      [
        "o",
        "y"
      ],
      [
        "it",
        "ion"
      ],
      [
        "er",
        "n"
      ],
      [
        "a",
        "il"
      ],
      [
        "T",
        "he"
      ],
      [
        "Ġa",
        "g"
      ],
      [
        "or",
        "th"
      ],
      [
        "Ġp",
        "ol"
      ],
      [
        "Ġcon",
        "t"
      ],
      [
        "ol",
        "og"
      ],
      [
        "Ġm",
        "ore"
      ],
      [
        "e",
        "x"
      ],
      [
        "ĠSt",
        "ates"
      ],
      [
        "f",
        "t"
      ],
      [
        "ic",
        "t"
      ],
      [
        "p",
        "l"
      ],
      [
        "Ġt",
        "wo"
      ],
      [
        "ĠC",
        "l"
      ],
      [
        "Ġ",
        "im"
      ],
      [
        "Ġa",
        "fter"
      ],
      [
        "00",
        "0"
      ],
      [
        "r",
        "al"
      ],
      [
        "Ġt",
        "ime"
      ],
      [
        "Ġin",
        "to"
      ],
      [
        "Ġc",
        "ount"
      ],
      [
        "\"",
        "|"
      ],
      [
        "oc",
        "k"
      ],
      [
        "an",
        "s"
      ],
      [
        "ĠF",
        "ran"
      ],
      [
        "ĠA",
        "s"
      ],
      [
        "Ġ",
        "her"
      ],
      [
        "1",
        "4"
      ],
      [
        "ub",
        "l"
      ],
      [
        "Ġ",
        "en"
      ],
      [
        "ĠS",
        "c"
      ],
      [
        "Ġa",
        "d"
      ],
      [
        "sp",
        "an"
      ],
      [
        "ap",
        "an"
      ],
      [
        "is",
        "s"
      ],
      [
        "in",
        "ce"
      ],
      [
        "re",
        "at"
      ],
      [
        "Ġw",
        "hen"
      ],
      [
        "cl",
        "ud"
      ],
      [
        "19",
        "8"
      ],
      [
        "ay",
        "s"
      ],
      [
        "ĠS",
        "h"
      ],
      [
        "Ġw",
        "ork"
      ],
      [
        "on",
        "t"
      ],
      [
        "iv",
        "ers"
      ],
      [
        "Ġ",
        "9"
      ],
      [
        "Ġ19",
        "5"
      ],
      [
        "in",
        "s"
      ],
      [
        "Ġf",
        "ootball"
      ],
      [
        "Ġm",
        "usic"
      ],
      [
        "Ġw",
        "rit"
      ],
      [
        "Ġ1",
        "6"
      ],
      [
        "ĠW",
        "orld"
      ],
      [
        "Ġ1",
        "0"
      ],
      [
        "g",
        "h"
      ],
      [
        "1",
        "3"
      ],
      [
        "Ġcom",
        "m"
      ],
      [
        "Ġ",
        "0"
      ],
      [
        "ĠB",
        "rit"
      ],
      [
        "1",
        "7"
      ],
      [
        "c",
        "c"
      ],
      [
        "Ġthe",
        "m"
      ],
      [
        "Ġr",
        "es"
      ],
      [
        "1",
        "6"
      ],
      [
        "id",
        "ent"
      ],
      [
        "Ġ",
        "up"
      ],
      [
        "e",
        "g"
      ],
      [
        "Ġth",
        "umb"
      ],
      [
        "Ġ",
        "Z"
      ],
      [
        "es",
        "e"
      ],
      [
        "ur",
        "ing"
      ],
      [
        "Ġs",
        "ome"
      ],
      [
        "ol",
        "l"
      ],
      [
        "ag",
        "es"
      ],
      [
        "ĠIn",
        "d"
      ],
      [
        "ĠEng",
        "lish"
      ],
      [
        "Ġ19",
        "3"
      ],
      [
        "Ġs",
        "o"
      ],
      [
        "Ġs",
        "y"
      ],
      [
        "1",
        "5"
      ],
      [
        "in",
        "a"
      ],
      [
        "Ġp",
        "er"
      ],
      [
        "Ġin",
        "clud"
      ],
      [
        "le",
        "v"
      ],
      [
        "Ġd",
        "if"
      ],
      [
        "ur",
        "y"
      ],
      [
        "Ġthe",
        "re"
      ],
      [
        "r",
        "ap"
      ],
      [
        "ĠC",
        "om"
      ],
      [
        "Ġo",
        "ut"
      ],
      [
        "he",
        "re"
      ],
      [
        "Ġs",
        "ing"
      ],
      [
        "as",
        "ed"
      ],
      [
        "th",
        "umb"
      ],
      [
        "ro",
        "und"
      ],
      [
        "d",
        "u"
      ],
      [
        "Ġwebs",
        "ites"
      ],
      [
        "Ġe",
        "v"
      ],
      [
        "Ġbe",
        "en"
      ],
      [
        "a",
        "z"
      ],
      [
        "m",
        "p"
      ],
      [
        "Ġ1",
        "5"
      ],
      [
        "2",
        "2"
      ],
      [
        "ĠJ",
        "oh"
      ],
      [
        "o",
        "ber"
      ],
      [
        "un",
        "e"
      ],
      [
        "he",
        "d"
      ],
      [
        "ĠI",
        "s"
      ],
      [
        "Ġc",
        "ent"
      ],
      [
        "ĠJ",
        "apan"
      ],
      [
        "ro",
        "up"
      ],
      [
        "w",
        "n"
      ],
      [
        "if",
        "e"
      ],
      [
        "in",
        "n"
      ],
      [
        "Ġkn",
        "own"
      ],
      [
        "ow",
        "er"
      ],
      [
        "os",
        "e"
      ],
      [
        "Ġb",
        "ir"
      ],
      [
        "is",
        "m"
      ],
      [
        "Ġf",
        "l"
      ],
      [
        "g",
        "an"
      ],
      [
        "h",
        "ip"
      ],
      [
        "us",
        "s"
      ],
      [
        "ur",
        "n"
      ],
      [
        "Ġb",
        "et"
      ],
      [
        "ĠC",
        "up"
      ],
      [
        "ug",
        "h"
      ],
      [
        "Ġth",
        "an"
      ],
      [
        "ĠW",
        "ar"
      ],
      [
        "r",
        "am"
      ],
      [
        "r",
        "ed"
      ],
      [
        "Ġon",
        "ly"
      ],
      [
        "Ġc",
        "ity"
      ],
      [
        "Ġl",
        "ike"
      ],
      [
        "it",
        "ies"
      ],
      [
        "Ġc",
        "o"
      ],
      [
        "Ġo",
        "ver"
      ],
      [
        "Ġ1",
        "4"
      ],
      [
        "ĠK",
        "ing"
      ],
      [
        "e",
        "ver"
      ],
      [
        "ers",
        "on"
      ],
      [
        "th",
        "s"
      ],
      [
        "Ġ",
        "very"
      ],
      [
        "Ġre",
        "c"
      ],
      [
        "d",
        "er"
      ],
      [
        "as",
        "h"
      ],
      [
        "Ġn",
        "ew"
      ],
      [
        "Ġyear",
        "s"
      ],
      [
        "s",
        "on"
      ],
      [
        "ist",
        "s"
      ],
      [
        "ver",
        "n"
      ],
      [
        "an",
        "u"
      ],
      [
        "ment",
        "s"
      ],
      [
        "Ġf",
        "am"
      ],
      [
        "i",
        "x"
      ],
      [
        "Ġof",
        "f"
      ],
      [
        "ep",
        "t"
      ],
      [
        "an",
        "ce"
      ],
      [
        "Ġ19",
        "2"
      ],
      [
        "ĠJoh",
        "n"
      ],
      [
        "y",
        "p"
      ],
      [
        "op",
        "ul"
      ],
      [
        "ĠA",
        "ust"
      ],
      [
        "as",
        "e"
      ],
      [
        "Ġbec",
        "ause"
      ],
      [
        "k",
        "s"
      ],
      [
        "Ġbec",
        "ame"
      ],
      [
        "ig",
        "h"
      ],
      [
        "r",
        "on"
      ],
      [
        "Ġf",
        "ound"
      ],
      [
        "ĠO",
        "n"
      ],
      [
        "Ġ1",
        "2"
      ],
      [
        "Ġc",
        "ol"
      ],
      [
        "in",
        "t"
      ],
      [
        "i",
        "um"
      ],
      [
        "Ġl",
        "ar"
      ],
      [
        "an",
        "n"
      ],
      [
        "ĠE",
        "u"
      ],
      [
        "im",
        "es"
      ],
      [
        "i",
        "et"
      ],
      [
        "ar",
        "l"
      ],
      [
        "l",
        "l"
      ],
      [
        "at",
        "t"
      ],
      [
        "m",
        "s"
      ],
      [
        "al",
        "e"
      ],
      [
        "Ġh",
        "im"
      ],
      [
        "19",
        "7"
      ],
      [
        "le",
        "y"
      ],
      [
        "Ġb",
        "l"
      ],
      [
        "Ġp",
        "o"
      ],
      [
        "fer",
        "ent"
      ],
      [
        "en",
        "n"
      ],
      [
        "v",
        "e"
      ],
      [
        "ĠBrit",
        "ish"
      ],
      [
        "ĠP",
        "ro"
      ],
      [
        "ab",
        "le"
      ],
      [
        "Ġg",
        "roup"
      ],
      [
        "p",
        "r"
      ],
      [
        "u",
        "ally"
      ],
      [
        "Ġa",
        "pp"
      ],
      [
        "ri",
        "m"
      ],
      [
        "ĠThe",
        "re"
      ],
      [
        "Ġte",
        "am"
      ],
      [
        "as",
        "on"
      ],
      [
        "el",
        "y"
      ],
      [
        "Ġw",
        "e"
      ],
      [
        "Ġpol",
        "it"
      ],
      [
        "iv",
        "ing"
      ],
      [
        "ic",
        "ian"
      ],
      [
        "et",
        "h"
      ],
      [
        "ĠA",
        "t"
      ],
      [
        "ĠP",
        "l"
      ],
      [
        "Ġplay",
        "er"
      ],
      [
        "ot",
        "h"
      ],
      [
        "en",
        "er"
      ],
      [
        "ĠM",
        "ay"
      ],
      [
        "ist",
        "ory"
      ],
      [
        "we",
        "en"
      ],
      [
        "il",
        "y"
      ],
      [
        "Ġ",
        "qu"
      ],
      [
        "Ġs",
        "he"
      ],
      [
        "p",
        "h"
      ],
      [
        "Ġd",
        "es"
      ],
      [
        "Ġdif",
        "ferent"
      ],
      [
        "ĠS",
        "he"
      ],
      [
        "Ġb",
        "u"
      ],
      [
        "om",
        "an"
      ],
      [
        "Ġst",
        "art"
      ],
      [
        "lev",
        "ision"
      ],
      [
        "ou",
        "gh"
      ],
      [
        "ĠB",
        "l"
      ],
      [
        "ct",
        "ion"
      ],
      [
        "c",
        "o"
      ],
      [
        "ot",
        "her"
      ],
      [
[...]
